{
  "version": "1.0",
  "truncation": null,
  "padding": null,
  "added_tokens": [
    {
      "id": 0,
      "content": "<pad>",
      "single_word": false,
      "lstrip": false,
      "rstrip": false,
      "normalized": false,
      "special": true
    },
    {
      "id": 1,
      "content": "<sos>",
      "single_word": false,
      "lstrip": false,
      "rstrip": false,
      "normalized": false,
      "special": true
    },
    {
      "id": 2,
      "content": "<eos>",
      "single_word": false,
      "lstrip": false,
      "rstrip": false,
      "normalized": false,
      "special": true
    },
    {
      "id": 3,
      "content": "<unk>",
      "single_word": false,
      "lstrip": false,
      "rstrip": false,
      "normalized": false,
      "special": true
    }
  ],
  "normalizer": {
    "type": "Sequence",
    "normalizers": [
      {
        "type": "Strip",
        "strip_left": true,
        "strip_right": true
      }
    ]
  },
  "pre_tokenizer": {
    "type": "ByteLevel",
    "add_prefix_space": true,
    "trim_offsets": true,
    "use_regex": true
  },
  "post_processor": null,
  "decoder": null,
  "model": {
    "type": "BPE",
    "dropout": null,
    "unk_token": "<unk>",
    "continuing_subword_prefix": null,
    "end_of_word_suffix": null,
    "fuse_unk": false,
    "byte_fallback": false,
    "ignore_merges": false,
    "vocab": {
      "<pad>": 0,
      "<sos>": 1,
      "<eos>": 2,
      "<unk>": 3,
      "!": 4,
      "\"": 5,
      "#": 6,
      "$": 7,
      "%": 8,
      "&": 9,
      "'": 10,
      "(": 11,
      ")": 12,
      "*": 13,
      "+": 14,
      ",": 15,
      "-": 16,
      ".": 17,
      "/": 18,
      "0": 19,
      "1": 20,
      "2": 21,
      "3": 22,
      "4": 23,
      "5": 24,
      "6": 25,
      "7": 26,
      "8": 27,
      "9": 28,
      ":": 29,
      ";": 30,
      "<": 31,
      "=": 32,
      ">": 33,
      "?": 34,
      "@": 35,
      "A": 36,
      "B": 37,
      "C": 38,
      "D": 39,
      "E": 40,
      "F": 41,
      "G": 42,
      "H": 43,
      "I": 44,
      "J": 45,
      "K": 46,
      "L": 47,
      "M": 48,
      "N": 49,
      "O": 50,
      "P": 51,
      "Q": 52,
      "R": 53,
      "S": 54,
      "T": 55,
      "U": 56,
      "V": 57,
      "W": 58,
      "X": 59,
      "Y": 60,
      "Z": 61,
      "[": 62,
      "\\": 63,
      "]": 64,
      "^": 65,
      "_": 66,
      "`": 67,
      "a": 68,
      "b": 69,
      "c": 70,
      "d": 71,
      "e": 72,
      "f": 73,
      "g": 74,
      "h": 75,
      "i": 76,
      "j": 77,
      "k": 78,
      "l": 79,
      "m": 80,
      "n": 81,
      "o": 82,
      "p": 83,
      "q": 84,
      "r": 85,
      "s": 86,
      "t": 87,
      "u": 88,
      "v": 89,
      "w": 90,
      "x": 91,
      "y": 92,
      "z": 93,
      "{": 94,
      "|": 95,
      "}": 96,
      "~": 97,
      "¦": 98,
      "¹": 99,
      "Â": 100,
      "Ã": 101,
      "â": 102,
      "Ġ": 103,
      "Ģ": 104,
      "Ĳ": 105,
      "ĵ": 106,
      "Ļ": 107,
      "ł": 108,
      "Ġ\\": 109,
      "ig": 110,
      "al": 111,
      "_{": 112,
      "*}": 113,
      "ign": 114,
      "align": 115,
      "in": 116,
      "^{": 117,
      "eg": 118,
      "nd": 119,
      "beg": 120,
      "begin": 121,
      "end": 122,
      "}\\": 123,
      "ra": 124,
      "ta": 125,
      "ma": 126,
      "}{": 127,
      "fra": 128,
      "frac": 129,
      "le": 130,
      ",\\": 131,
      "(\\": 132,
      "th": 133,
      "ft": 134,
      "ar": 135,
      "{\\": 136,
      "Ġ=": 137,
      "ph": 138,
      "am": 139,
      "eta": 140,
      "igh": 141,
      "righ": 142,
      ")\\": 143,
      ".\\": 144,
      "ti": 145,
      "_{\\": 146,
      "left": 147,
      "right": 148,
      "math": 149,
      "}(": 150,
      "*}\\": 151,
      "}^{": 152,
      "=\\": 153,
      "de": 154,
      "Ġ&": 155,
      "}}": 156,
      "-\\": 157,
      "Ġ+": 158,
      "su": 159,
      "ot": 160,
      "dot": 161,
      "pha": 162,
      "alpha": 163,
      "si": 164,
      "da": 165,
      "sum": 166,
      "amb": 167,
      "ambda": 168,
      "Ġ(": 169,
      "er": 170,
      "Ġ-": 171,
      "})": 172,
      "psi": 173,
      "+\\": 174,
      "lambda": 175,
      "phi": 176,
      "mu": 177,
      "lo": 178,
      "}^": 179,
      ")}": 180,
      "^{\\": 181,
      "lta": 182,
      "amma": 183,
      "int": 184,
      "par": 185,
      "tial": 186,
      "partial": 187,
      "^{-": 188,
      "}{\\": 189,
      "cal": 190,
      "_\\": 191,
      "mathb": 192,
      "big": 193,
      "var": 194,
      "ega": 195,
      "mega": 196,
      "la": 197,
      "beta": 198,
      "cdot": 199,
      "Ġx": 200,
      "igma": 201,
      "ver": 202,
      "Ġ\\\\": 203,
      "pi": 204,
      "inft": 205,
      "infty": 206,
      "Ġ0": 207,
      "lon": 208,
      "}_{": 209,
      "Ġd": 210,
      "mathcal": 211,
      "lde": 212,
      "|\\": 213,
      "theta": 214,
      "tilde": 215,
      "}_": 216,
      "gamma": 217,
      "Ġ1": 218,
      "rm": 219,
      "es": 220,
      "psilon": 221,
      "sigma": 222,
      ")=": 223,
      "epsilon": 224,
      "ng": 225,
      "xi": 226,
      "ho": 227,
      "delta": 228,
      "},": 229,
      "tau": 230,
      "ngle": 231,
      "im": 232,
      "nu": 233,
      "rho": 234,
      "leq": 235,
      "over": 236,
      ")^": 237,
      "at": 238,
      "ll": 239,
      "hi": 240,
      "Ġu": 241,
      "bar": 242,
      "hat": 243,
      "^\\": 244,
      "dots": 245,
      "}(\\": 246,
      "Ġf": 247,
      "},\\": 248,
      "omega": 249,
      "}}\\": 250,
      "\\\\": 251,
      "ab": 252,
      "eq": 253,
      "bo": 254,
      "ro": 255,
      "mathbb": 256,
      ")=\\": 257,
      "Ġa": 258,
      "sq": 259,
      "ell": 260,
      "rt": 261,
      ").\\": 262,
      "Ġ2": 263,
      "}^{\\": 264,
      "sqrt": 265,
      "Ġt": 266,
      "varphi": 267,
      "Big": 268,
      "}.\\": 269,
      "tim": 270,
      "times": 271,
      "),": 272,
      "}=": 273,
      "ray": 274,
      "array": 275,
      "Ġe": 276,
      "^{(": 277,
      "nab": 278,
      "nabla": 279,
      "Ġ\\,": 280,
      "),\\": 281,
      "mathbf": 282,
      "lim": 283,
      ")^{": 284,
      "De": 285,
      "Ġi": 286,
      "Delta": 287,
      "ap": 288,
      "lin": 289,
      "line": 290,
      "as": 291,
      "Ġ{\\": 292,
      "Ġ(\\": 293,
      "}+": 294,
      "Ġn": 295,
      "Omega": 296,
      "\\,": 297,
      "wi": 298,
      "ĠA": 299,
      "tr": 300,
      "))": 301,
      "mbo": 302,
      "Ġ{": 303,
      "Gamma": 304,
      "ex": 305,
      "}-": 306,
      "wide": 307,
      "|^": 308,
      "rangle": 309,
      "ed": 310,
      "&\\": 311,
      "^*": 312,
      "to": 313,
      "Ġg": 314,
      "tri": 315,
      "Ġv": 316,
      "varepsilon": 317,
      "overline": 318,
      "mathrm": 319,
      "Ġp": 320,
      ")}\\": 321,
      "}=\\": 322,
      "log": 323,
      "Ġy": 324,
      "Ġk": 325,
      "Ġ&=": 326,
      "langle": 327,
      ";\\": 328,
      "[\\": 329,
      "Ġ|": 330,
      ")(": 331,
      "Phi": 332,
      "matri": 333,
      "matrix": 334,
      "Ġ}": 335,
      "ad": 336,
      "Ġz": 337,
      "}}{": 338,
      "&=": 339,
      "cdots": 340,
      "Ġc": 341,
      ":=": 342,
      "qu": 343,
      "quad": 344,
      "chi": 345,
      "Ġb": 346,
      "ĠC": 347,
      "tar": 348,
      "\\|": 349,
      "Ġr": 350,
      ")}{": 351,
      "ldots": 352,
      "pa": 353,
      "ĠT": 354,
      "Ġs": 355,
      "ĠX": 356,
      "geq": 357,
      "otimes": 358,
      "or": 359,
      "pro": 360,
      "bf": 361,
      "se": 362,
      "ĠF": 363,
      "ĠB": 364,
      "zeta": 365,
      "Ġq": 366,
      "mbox": 367,
      ")+": 368,
      "ge": 369,
      "\\{": 370,
      ")-": 371,
      "Ġh": 372,
      "cas": 373,
      "cases": 374,
      "row": 375,
      "})\\": 376,
      "ĠL": 377,
      "ĠR": 378,
      "}_{\\": 379,
      "ts": 380,
      "ĠP": 381,
      "}+\\": 382,
      "Ġm": 383,
      "ĠH": 384,
      "ĠS": 385,
      "ĠD": 386,
      "kap": 387,
      "kappa": 388,
      "Lambda": 389,
      "ve": 390,
      "ij": 391,
      "prod": 392,
      "Ġ,": 393,
      "rc": 394,
      "Ġ[": 395,
      "tarrow": 396,
      "pr": 397,
      "pm": 398,
      "ĠE": 399,
      "ĠM": 400,
      "~~": 401,
      "Ġj": 402,
      "Ġ-\\": 403,
      "Ġ.\\": 404,
      "co": 405,
      "widetilde": 406,
      "set": 407,
      "rightarrow": 408,
      "Ġw": 409,
      "tex": 410,
      "ime": 411,
      "ci": 412,
      "prime": 413,
      "circ": 414,
      "{(": 415,
      "ĠV": 416,
      "Ġ=\\": 417,
      "ĠN": 418,
      "vert": 419,
      "Psi": 420,
      "12": 421,
      "bigg": 422,
      "Ġ,\\": 423,
      "ĠI": 424,
      "its": 425,
      "limits": 426,
      "aligned": 427,
      "}\\,": 428,
      "ds": 429,
      "&=\\": 430,
      "Ġ_{": 431,
      "ĠG": 432,
      ":=\\": 433,
      "}-\\": 434,
      "pmatrix": 435,
      "}^{(": 436,
      "text": 437,
      "vec": 438,
      "}^\\": 439,
      "}|": 440,
      "'(": 441,
      "Ġ)": 442,
      "]\\": 443,
      "Ġ\\;": 444,
      "ther": 445,
      "op": 446,
      ")\\\\": 447,
      ")}(": 448,
      "^{-\\": 449,
      "Ġ\\|": 450,
      ")\\,": 451,
      "(-": 452,
      "sin": 453,
      "dx": 454,
      "ĠK": 455,
      "Ġ&\\": 456,
      "us": 457,
      "..": 458,
      ")|": 459,
      "frak": 460,
      "ga": 461,
      "}}(": 462,
      "min": 463,
      ")+\\": 464,
      "gather": 465,
      "Ġ\\{": 466,
      "ĠU": 467,
      ")^{-": 468,
      "ĠQ": 469,
      "Ġ:=": 470,
      "widehat": 471,
      "cap": 472,
      "cos": 473,
      "for": 474,
      "edge": 475,
      "all": 476,
      "wedge": 477,
      "exp": 478,
      "up": 479,
      "mathfrak": 480,
      "ast": 481,
      "_{(": 482,
      "ck": 483,
      "Ġ+\\": 484,
      "cc": 485,
      "dt": 486,
      "om": 487,
      ")^{\\": 488,
      "ĠW": 489,
      "}}{\\": 490,
      "sup": 491,
      "\\{\\": 492,
      "ĠJ": 493,
      ",\\\\": 494,
      "ert": 495,
      "Vert": 496,
      "iv": 497,
      "ty": 498,
      "sub": 499,
      "bin": 500,
      "binom": 501,
      ")}{\\": 502,
      "_{-": 503,
      ")-\\": 504,
      "Ġ}\\": 505,
      "^+": 506,
      "und": 507,
      "Sigma": 508,
      "Ġ<": 509,
      "under": 510,
      "}\\\\": 511,
      "\\}": 512,
      "}^{-": 513,
      "cup": 514,
      "Ġ|\\": 515,
      ",\\,": 516,
      "bol": 517,
      "}{(": 518,
      "*}(": 519,
      "ĠY": 520,
      "ĠZ": 521,
      "max": 522,
      "id": 523,
      "}]": 524,
      "*}{\\": 525,
      "|_{": 526,
      "forall": 527,
      "!\\": 528,
      "ce": 529,
      "tyle": 530,
      "ln": 531,
      "_+": 532,
      "ymbo": 533,
      "ymbol": 534,
      "dsymbol": 535,
      "boldsymbol": 536,
      ")_{": 537,
      "is": 538,
      "\\|_{": 539,
      "qquad": 540,
      "''": 541,
      "equ": 542,
      "mid": 543,
      "Ġ\\\\\\": 544,
      ")_": 545,
      "equiv": 546,
      ").": 547,
      "Ġdx": 548,
      "Ġ\\\\&": 549,
      "sim": 550,
      "))\\": 551,
      "dfrac": 552,
      "neq": 553,
      ";\\;\\": 554,
      "Ġl": 555,
      "Ġ3": 556,
      "Ġ_": 557,
      "lus": 558,
      "Ġ4": 559,
      "ĠO": 560,
      ")]": 561,
      "}[": 562,
      "11": 563,
      "|^{": 564,
      "/\\": 565,
      "Pi": 566,
      "-(": 567,
      "dag": 568,
      "oplus": 569,
      "Th": 570,
      "}.": 571,
      "Theta": 572,
      "Ġ^{": 573,
      "bmatrix": 574,
      ",\\,\\": 575,
      "sta": 576,
      "bigl": 577,
      "bigr": 578,
      "}_\\": 579,
      "\\}\\": 580,
      "dis": 581,
      "stack": 582,
      "ys": 583,
      "})=": 584,
      "Ġ>": 585,
      "pla": 586,
      "displa": 587,
      "Ġ(-": 588,
      "textrm": 589,
      "displays": 590,
      "displaystyle": 591,
      "'_": 592,
      "det": 593,
      "underline": 594,
      "\\,\\": 595,
      "tfrac": 596,
      "}}.\\": 597,
      "^-": 598,
      "loor": 599,
      "floor": 600,
      "subset": 601,
      "ger": 602,
      "dagger": 603,
      "re": 604,
      "<\\": 605,
      "bra": 606,
      "+(": 607,
      "*}&": 608,
      "}).\\": 609,
      "Ġ:": 610,
      "\\}.\\": 611,
      "((": 612,
      "10": 613,
      "Ġ$": 614,
      "inf": 615,
      ")/": 616,
      "{-": 617,
      "'\\": 618,
      "...": 619,
      "star": 620,
      "Ġ.": 621,
      "):=\\": 622,
      ")(\\": 623,
      ")&=": 624,
      "minus": 625,
      ")}}": 626,
      ")})": 627,
      "_-": 628,
      ")}.\\": 629,
      "dy": 630,
      "',": 631,
      "sf": 632,
      "_*": 633,
      ":\\": 634,
      ")}_{": 635,
      "setminus": 636,
      "{{\\": 637,
      "}}^{": 638,
      "({\\": 639,
      "Ġ~": 640,
      "}},": 641,
      ")!": 642,
      "sla": 643,
      "}&": 644,
      "]=": 645,
      "{|": 646,
      "}},\\": 647,
      "brace": 648,
      "Ġ^": 649,
      "}{|": 650,
      "(-\\": 651,
      "Ġdt": 652,
      ")},": 653,
      "].\\": 654,
      "}\\,\\": 655,
      "substack": 656,
      "')": 657,
      "})^{": 658,
      "})=\\": 659,
      "}}(\\": 660,
      "}}}": 661,
      "tor": 662,
      "^{(\\": 663,
      "per": 664,
      "'}": 665,
      "}}_{": 666,
      "})^": 667,
      "*}(\\": 668,
      "nt": 669,
      "box": 670,
      "}\\|": 671,
      "era": 672,
      "):=": 673,
      "}|\\": 674,
      "erator": 675,
      "=-\\": 676,
      "ame": 677,
      "textbf": 678,
      "Ġ_{\\": 679,
      "operator": 680,
      "if": 681,
      "sh": 682,
      "name": 683,
      "operatorname": 684,
      "Bigr": 685,
      "\\\\\\": 686,
      ";\\;": 687,
      "}^*": 688,
      "perp": 689,
      ")}_": 690,
      "Ġ}{": 691,
      "Ġo": 692,
      "_{+": 693,
      "Ġ[\\": 694,
      "*}&\\": 695,
      ")},\\": 696,
      "io": 697,
      "}),\\": 698,
      "~\\": 699,
      "]}": 700,
      "ip": 701,
      "}}=": 702,
      "Bigl": 703,
      ")}=": 704,
      "dim": 705,
      "vartheta": 706,
      "}),": 707,
      "Ġ\\\\&=": 708,
      "iota": 709,
      "mp": 710,
      "_{[": 711,
      "],": 712,
      "~~~~": 713,
      ")&=\\": 714,
      "\\},\\": 715,
      "vee": 716,
      ",-": 717,
      "{{": 718,
      "hbar": 719,
      "};": 720,
      "\\;": 721,
      "),\\\\": 722,
      "_{-\\": 723,
      "\\|^": 724,
      ")^\\": 725,
      "16": 726,
      "*}|": 727,
      "^*(": 728,
      "ik": 729,
      ")|^": 730,
      "=-": 731,
      "vdots": 732,
      "],\\": 733,
      "mathsf": 734,
      "13": 735,
      "}}=\\": 736,
      "}(-": 737,
      "Ġds": 738,
      "22": 739,
      "it": 740,
      "=(": 741,
      "\\|\\": 742,
      "od": 743,
      ")}=\\": 744,
      "not": 745,
      "Ġ\\,\\": 746,
      "hoo": 747,
      "jk": 748,
      "})(": 749,
      ")}(\\": 750,
      "hbox": 751,
      ")=(": 752,
      "}'": 753,
      "}}_": 754,
      "*}[": 755,
      "Ġand": 756,
      "^{+": 757,
      "\\|_": 758,
      "bigcup": 759,
      "il": 760,
      "21": 761,
      "Bigg": 762,
      "dz": 763,
      ")|\\": 764,
      "hoose": 765,
      "choose": 766,
      "(|": 767,
      "Ġ^{\\": 768,
      "ss": 769,
      "})}": 770,
      "\\\\&": 771,
      "rfloor": 772,
      "ch": 773,
      "cr": 774,
      "lfloor": 775,
      "^*\\": 776,
      "on": 777,
      "|_": 778,
      "|}": 779,
      "Ġfor": 780,
      "00": 781,
      "{(\\": 782,
      "}/": 783,
      "*}\\|": 784,
      "*}{": 785,
      ")&": 786,
      "slant": 787,
      "}}}\\": 788,
      "Ġ\\\\&\\": 789,
      "Re": 790,
      "Ġ\\}": 791,
      "+|": 792,
      "and": 793,
      "},\\\\": 794,
      "Ġ\\|\\": 795,
      "^{*}": 796,
      "}[\\": 797,
      "spa": 798,
      "Ġ&=\\": 799,
      "23": 800,
      "angle": 801,
      "Ġ)\\": 802,
      "}}{(": 803,
      "}}^": 804,
      "varrho": 805,
      ",\\\\\\": 806,
      "xx": 807,
      "))=": 808,
      "_{|": 809,
      "Ġ]": 810,
      "24": 811,
      "ps": 812,
      "_{{\\": 813,
      "|=": 814,
      ")\\\\&=": 815,
      "rel": 816,
      "ne": 817,
      "bu": 818,
      "}\\;": 819,
      "'_{": 820,
      ")_{\\": 821,
      "xy": 822,
      ")).\\": 823,
      "triangle": 824,
      "([": 825,
      "\\}}": 826,
      "...,": 827,
      "space": 828,
      "top": 829,
      "biggr": 830,
      "Ġ}{\\": 831,
      "biggl": 832,
      "!\\!\\": 833,
      "}~": 834,
      "no": 835,
      "|_{\\": 836,
      "colon": 837,
      "sinh": 838,
      "}&=": 839,
      "\\},": 840,
      "dr": 841,
      "stackrel": 842,
      "}}^{\\": 843,
      "Ġdy": 844,
      "\\,.\\": 845,
      "Ġ12": 846,
      "bul": 847,
      "maps": 848,
      "!}": 849,
      "mapsto": 850,
      "Ġ/": 851,
      "cosh": 852,
      "}:=\\": 853,
      "tstyle": 854,
      "kl": 855,
      "less": 856,
      "})+": 857,
      "({": 858,
      "]=\\": 859,
      ")=-\\": 860,
      "tan": 861,
      "||": 862,
      "}}+": 863,
      "14": 864,
      "}}+\\": 865,
      "lesssim": 866,
      "pt": 867,
      ")}{(": 868,
      "underset": 869,
      "deg": 870,
      "tt": 871,
      "long": 872,
      "):": 873,
      "Ġif": 874,
      ">\\": 875,
      "Ġ\\{\\": 876,
      "mn": 877,
      "'(\\": 878,
      "}=-\\": 879,
      "}|^": 880,
      "=&": 881,
      "subseteq": 882,
      ")\\\\&": 883,
      "\\!": 884,
      "}^{(\\": 885,
      "}}\\,": 886,
      "ii": 887,
      "}})": 888,
      "leqslant": 889,
      "Xi": 890,
      "ba": 891,
      "|}\\": 892,
      "}&\\": 893,
      "})}\\": 894,
      "}({\\": 895,
      "{(-": 896,
      "let": 897,
      "du": 898,
      "]_": 899,
      "})_{": 900,
      ")\\,\\": 901,
      "^{[": 902,
      "}:": 903,
      "bullet": 904,
      "\\,,\\": 905,
      "prox": 906,
      "Ġin": 907,
      "slash": 908,
      "Ġ6": 909,
      "}=-": 910,
      "bigoplus": 911,
      "))^": 912,
      "approx": 913,
      "st": 914,
      ")=-": 915,
      "che": 916,
      ",(": 917,
      "check": 918,
      "\\\\&=": 919,
      "]^": 920,
      "'}\\": 921,
      "/(": 922,
      "\\\\&\\": 923,
      "overset": 924,
      "arp": 925,
      "|^{\\": 926,
      "Ġ}(": 927,
      "})-": 928,
      "}}-": 929,
      "^*_": 930,
      "Ġ\\:": 931,
      "''(": 932,
      "Ġ;": 933,
      "limsup": 934,
      ")}+": 935,
      "^*}": 936,
      ")^*": 937,
      ")}}\\": 938,
      "]_{": 939,
      "32": 940,
      "{|\\": 941,
      "AB": 942,
      ",...,": 943,
      ")^{-\\": 944,
      "Im": 945,
      "\\|_{\\": 946,
      "})^{-": 947,
      "ddots": 948,
      "})\\\\": 949,
      ")}^": 950,
      "_{\\{": 951,
      "})}{": 952,
      "ic": 953,
      ")),\\": 954,
      "Ġ5": 955,
      "~~~": 956,
      ")\\;": 957,
      "-|": 958,
      "*}-\\": 959,
      "crip": 960,
      ")),": 961,
      "longrightarrow": 962,
      "ia": 963,
      "Ġ&&": 964,
      "](": 965,
      "]}\\": 966,
      "en": 967,
      "}}}{": 968,
      "dv": 969,
      "back": 970,
      "*}-": 971,
      "ccc": 972,
      "20": 973,
      "backslash": 974,
      ")+(": 975,
      "div": 976,
      "cm": 977,
      ")>": 978,
      "!}\\": 979,
      "Tr": 980,
      "Ġ8": 981,
      "mpty": 982,
      "}^{+": 983,
      "}=(": 984,
      "')\\": 985,
      "[(": 986,
      "empty": 987,
      "emptyset": 988,
      "ker": 989,
      "))=\\": 990,
      "*}|\\": 991,
      "Ġ\\|_{": 992,
      "sharp": 993,
      "}\\|_{": 994,
      "arrow": 995,
      "}:=": 996,
      "mod": 997,
      "}&=\\": 998,
      "|\\,": 999,
      "ol": 1000,
      "rvert": 1001,
      "mm": 1002,
      "lvert": 1003,
      ",&": 1004,
      "^{-(": 1005,
      "15": 1006,
      "Ġ*": 1007,
      "Ġall": 1008,
      "underbrace": 1009,
      ")\\\\&\\": 1010,
      "cd": 1011,
      ")\\\\&=\\": 1012,
      "_{(\\": 1013,
      "((\\": 1014,
      ")}-": 1015,
      "Ġ{{": 1016,
      "lbrace": 1017,
      ";\\;\\;": 1018,
      "Ġdz": 1019,
      "'-": 1020,
      ")}+\\": 1021,
      "textstyle": 1022,
      "hspace": 1023,
      "sm": 1024,
      "}\\\\\\": 1025,
      ")}}{": 1026,
      "ix": 1027,
      "pq": 1028,
      "^{*": 1029,
      "Ġ\\,\\,": 1030,
      "'}(": 1031,
      "ac": 1032,
      "varpi": 1033,
      "})^{\\": 1034,
      ")\\|_{": 1035,
      "=&\\": 1036,
      "})+\\": 1037,
      "){\\": 1038,
      ")_\\": 1039,
      ",\\\\&": 1040,
      "ddot": 1041,
      "}_{(": 1042,
      "Ġ({\\": 1043,
      ")}\\,": 1044,
      "Ġ=&": 1045,
      "ĠTr": 1046,
      "]^{": 1047,
      "]+": 1048,
      "Ġ\\,.\\": 1049,
      "|^{-": 1050,
      "Ġ&:=": 1051,
      ")\\|": 1052,
      "'+": 1053,
      "}^+": 1054,
      ",{\\": 1055,
      "Ġ{{\\": 1056,
      "}\\\\&": 1057,
      "textup": 1058,
      "sk": 1059,
      "Ġ\\!": 1060,
      "',\\": 1061,
      "}\\,.\\": 1062,
      ")}_{\\": 1063,
      "bold": 1064,
      "}+(": 1065,
      "}}_{\\": 1066,
      ",\\,\\,\\,\\": 1067,
      "Ġ\\;\\;": 1068,
      ")\\,.\\": 1069,
      ")~": 1070,
      "]{": 1071,
      "\\&\\": 1072,
      "Ġ\\}.\\": 1073,
      "Ġ}}": 1074,
      "Ġ_\\": 1075,
      "Pr": 1076,
      "}{(\\": 1077,
      "=\\,": 1078,
      "rmal": 1079,
      ")}^{": 1080,
      "Ġ:=\\": 1081,
      "Ġdr": 1082,
      "Ġ$\\": 1083,
      "ijk": 1084,
      "&&": 1085,
      "normal": 1086,
      ")^{(": 1087,
      ")&\\": 1088,
      ".}\\": 1089,
      "'}{": 1090,
      "simeq": 1091,
      "rbrace": 1092,
      "}}-\\": 1093,
      ",\\;": 1094,
      "}^{*}": 1095,
      "bigcap": 1096,
      "ref": 1097,
      "};\\": 1098,
      "*}\\{": 1099,
      "Ġ-(": 1100,
      "Upsilon": 1101,
      "}>": 1102,
      "skip": 1103,
      "cccc": 1104,
      "small": 1105,
      "})}{\\": 1106,
      "pmod": 1107,
      "'=": 1108,
      "+(\\": 1109,
      "+|\\": 1110,
      "textnormal": 1111,
      "ec": 1112,
      "}{|\\": 1113,
      "}))": 1114,
      "ut": 1115,
      "_{|\\": 1116,
      "^*,": 1117,
      "^*_{": 1118,
      "}})\\": 1119,
      "_+(": 1120,
      "*\\": 1121,
      "ff": 1122,
      "upsilon": 1123,
      "^+(": 1124,
      "wn": 1125,
      "\\\\&=\\": 1126,
      "\\&": 1127,
      "ji": 1128,
      "25": 1129,
      "))}": 1130,
      "34": 1131,
      ";\\;\\;\\;\\": 1132,
      "\\!\\": 1133,
      ",[": 1134,
      ");": 1135,
      "})-\\": 1136,
      "ing": 1137,
      "}\\|\\": 1138,
      "_{{": 1139,
      "own": 1140,
      "01": 1141,
      "}<": 1142,
      "kj": 1143,
      "sts": 1144,
      "})\\,": 1145,
      ")|^{": 1146,
      "}).": 1147,
      "brack": 1148,
      "}]\\": 1149,
      "liminf": 1150,
      "}\\\\&\\": 1151,
      "),(": 1152,
      "{-\\": 1153,
      ")[": 1154,
      "Ġ~~": 1155,
      "down": 1156,
      ")\\\\\\": 1157,
      "}_{-": 1158,
      "with": 1159,
      "xists": 1160,
      "}}.": 1161,
      "scrip": 1162,
      ")\\,,\\": 1163,
      "]}(": 1164,
      "}\\\\&=": 1165,
      "}\\{": 1166,
      "Ġdu": 1167,
      "-(\\": 1168,
      "Ġ^{-": 1169,
      "^*)": 1170,
      "Righ": 1171,
      "}^{+\\": 1172,
      "Rightarrow": 1173,
      "|}{": 1174,
      "Ġ(-\\": 1175,
      "II": 1176,
      "bc": 1177,
      ")-(": 1178,
      "{[": 1179,
      "(|\\": 1180,
      "}\\,,\\": 1181,
      "|.\\": 1182,
      "cl": 1183,
      "^*(\\": 1184,
      "nto": 1185,
      ",~": 1186,
      "=\\{": 1187,
      "=(\\": 1188,
      "])": 1189,
      "phanto": 1190,
      "\\}.": 1191,
      "phantom": 1192,
      "*}[\\": 1193,
      "&-": 1194,
      "rce": 1195,
      "Ġis": 1196,
      "))^{": 1197,
      "Ġ((": 1198,
      "cong": 1199,
      ")}-\\": 1200,
      "}$": 1201,
      "\\,,": 1202,
      "),\\\\\\": 1203,
      "|-": 1204,
      ")=(\\": 1205,
      "rceil": 1206,
      "exists": 1207,
      "rr": 1208,
      "18": 1209,
      "}-(": 1210,
      "Ġ=-": 1211,
      "ceil": 1212,
      "downarrow": 1213,
      "lceil": 1214,
      "notin": 1215,
      "lll": 1216,
      "}|^{": 1217,
      "))-": 1218,
      "oint": 1219,
      "}}}{\\": 1220,
      "Ġ\\;\\": 1221,
      ")<": 1222,
      "))(": 1223,
      "_-(": 1224,
      "atop": 1225,
      "-{": 1226,
      "|(": 1227,
      "^+_": 1228,
      "}'(": 1229,
      "imath": 1230,
      ",\\,\\,": 1231,
      "Ġ=-\\": 1232,
      ")!}": 1233,
      "bot": 1234,
      "nk": 1235,
      "}}|": 1236,
      "=\\;": 1237,
      "uv": 1238,
      "Ġ\\,,\\": 1239,
      "'^": 1240,
      "leftrightarrow": 1241,
      "|)": 1242,
      "].": 1243,
      "{$": 1244,
      "sp": 1245,
      ")})\\": 1246,
      ")]\\": 1247,
      "iint": 1248,
      ")}.": 1249,
      "33": 1250,
      "em": 1251,
      "rs": 1252,
      "Ġ\\}\\": 1253,
      "}_+": 1254,
      "Ġon": 1255,
      "Ġth": 1256,
      "Ġ}^{": 1257,
      "|,": 1258,
      "^-(": 1259,
      ")}\\\\": 1260,
      "=}": 1261,
      "*}\\|\\": 1262,
      "},\\\\\\": 1263,
      "sqcup": 1264,
      "~~~~~~~~": 1265,
      "Ġ\\\\&=\\": 1266,
      "Ġ+(": 1267,
      "}((": 1268,
      "})(\\": 1269,
      "Ġ10": 1270,
      "Ġtr": 1271,
      "|+": 1272,
      "rl": 1273,
      "+{\\": 1274,
      "Ġdv": 1275,
      "wise": 1276,
      "]-": 1277,
      "}\\\\&=\\": 1278,
      "Ġ{(": 1279,
      "^+}": 1280,
      "{}": 1281,
      "tanh": 1282,
      "Ġ)^{": 1283,
      "arg": 1284,
      "bre": 1285,
      "therwise": 1286,
      "rcl": 1287,
      "iz": 1288,
      "-{\\": 1289,
      "\\}}\\": 1290,
      "={": 1291,
      "})_": 1292,
      "ĠdW": 1293,
      "+{": 1294,
      "(\\{": 1295,
      "Lo": 1296,
      "={\\": 1297,
      "ax": 1298,
      "dW": 1299,
      "+}": 1300,
      "mathop": 1301,
      "\\}=": 1302,
      "}=\\{": 1303,
      "}{{\\": 1304,
      "=~": 1305,
      "Ġ)=": 1306,
      "Ġ^\\": 1307,
      "Ġ=(": 1308,
      "))+": 1309,
      "!\\!": 1310,
      "~~\\": 1311,
      "Ġ~\\": 1312,
      "Ġ}}\\": 1313,
      "nm": 1314,
      ",-\\": 1315,
      "31": 1316,
      "Ġ||": 1317,
      "Ġ)^": 1318,
      "\\|_\\": 1319,
      "abc": 1320,
      "lVert": 1321,
      "Ġ},": 1322,
      ")}|": 1323,
      ")=&": 1324,
      "Ġ).\\": 1325,
      "...\\": 1326,
      "}^{-\\": 1327,
      "))}{": 1328,
      "Ġ}_{": 1329,
      "}}\\\\": 1330,
      "[-": 1331,
      "geqslant": 1332,
      "}]=": 1333,
      "}^{[": 1334,
      "ere": 1335,
      "iag": 1336,
      "Ġ}=\\": 1337,
      "di": 1338,
      ")}{|": 1339,
      "Long": 1340,
      "}={\\": 1341,
      "')^": 1342,
      "}}^{(": 1343,
      "^+\\": 1344,
      "Ġ7": 1345,
      "'_{\\": 1346,
      "}^-": 1347,
      "pmb": 1348,
      "iy": 1349,
      "hskip": 1350,
      "gathered": 1351,
      "17": 1352,
      "Ġ\\,,": 1353,
      "Ġ\\#": 1354,
      "Le": 1355,
      "}(-\\": 1356,
      "here": 1357,
      "nx": 1358,
      "\\}_{": 1359,
      "rVert": 1360,
      "parrow": 1361,
      "dw": 1362,
      "}_{+": 1363,
      ")={\\": 1364,
      "|=\\": 1365,
      "Ġ}=": 1366,
      "27": 1367,
      "}\\!": 1368,
      ".}": 1369,
      "XY": 1370,
      "|^\\": 1371,
      "\\,\\,": 1372,
      ")}}{\\": 1373,
      "_+\\": 1374,
      "cot": 1375,
      "|<": 1376,
      "}))\\": 1377,
      "nolimits": 1378,
      "_{,": 1379,
      "\\{(": 1380,
      "}<\\": 1381,
      "Ġ9": 1382,
      "Ġ},\\": 1383,
      "]_{\\": 1384,
      "~.\\": 1385,
      "Ġ&=&": 1386,
      "48": 1387,
      ")|_{": 1388,
      "^{'": 1389,
      "})_{\\": 1390,
      "df": 1391,
      "Ġ&+": 1392,
      "123": 1393,
      ",\\\\&\\": 1394,
      ")\\|^": 1395,
      "Ġ16": 1396,
      "Ġ,\\\\": 1397,
      "ond": 1398,
      "Ġ)}": 1399,
      "uparrow": 1400,
      "$,": 1401,
      "36": 1402,
      "})|": 1403,
      "prec": 1404,
      "breve": 1405,
      "Left": 1406,
      "Ġ<\\": 1407,
      "dX": 1408,
      "gg": 1409,
      "Ġof": 1410,
      "_*(": 1411,
      "}([": 1412,
      "eqq": 1413,
      "19": 1414,
      "Ġ),": 1415,
      "*{": 1416,
      "}/\\": 1417,
      "lat": 1418,
      "eqref": 1419,
      "56": 1420,
      "]^{\\": 1421,
      "gh": 1422,
      "alle": 1423,
      "IJ": 1424,
      "(\\|": 1425,
      "}|_{": 1426,
      "are": 1427,
      "smallmatrix": 1428,
      "_-\\": 1429,
      "diam": 1430,
      "paralle": 1431,
      "parallel": 1432,
      "Ġ|^": 1433,
      "}={": 1434,
      "Leftrightarrow": 1435,
      ")^{|": 1436,
      "}{{": 1437,
      "wp": 1438,
      "coloneqq": 1439,
      "},{\\": 1440,
      "ir": 1441,
      ")/\\": 1442,
      "))+\\": 1443,
      "ki": 1444,
      "{}_": 1445,
      "^-_": 1446,
      "Ġ(|": 1447,
      "MN": 1448,
      ";\\\\": 1449,
      "inter": 1450,
      "}=(\\": 1451,
      "Ġ}^{\\": 1452,
      "))\\,": 1453,
      "Ġ\\},": 1454,
      "arc": 1455,
      "dg": 1456,
      "ie": 1457,
      "boldmath": 1458,
      "Ġ}.\\": 1459,
      "Ġ...": 1460,
      "\\})": 1461,
      "odot": 1462,
      "Ġ-{": 1463,
      "=|": 1464,
      "Ġ),\\": 1465,
      "^{(-": 1466,
      "\\;\\": 1467,
      "]+\\": 1468,
      "flat": 1469,
      "supset": 1470,
      "jl": 1471,
      "^{{\\": 1472,
      ")!}\\": 1473,
      "bb": 1474,
      "dd": 1475,
      "ni": 1476,
      "ze": 1477,
      "'=\\": 1478,
      "Ġ\\\\-": 1479,
      "tu": 1480,
      "[-\\": 1481,
      "Ric": 1482,
      "ox": 1483,
      "))}\\": 1484,
      "){": 1485,
      "gcd": 1486,
      "Ġ)=\\": 1487,
      "64": 1488,
      ":\\,": 1489,
      "},\\,": 1490,
      ");\\": 1491,
      "}\\|^": 1492,
      "30": 1493,
      "}~\\": 1494,
      "\\|^{": 1495,
      "-|\\": 1496,
      "an": 1497,
      "np": 1498,
      "-\\!": 1499,
      ")=&\\": 1500,
      "dotsc": 1501,
      "\\,(": 1502,
      "]\\\\": 1503,
      "}\\}": 1504,
      "mathtt": 1505,
      "kx": 1506,
      "^-_{": 1507,
      "bmod": 1508,
      "pl": 1509,
      "{\\|": 1510,
      "dV": 1511,
      "eff": 1512,
      "overrightarrow": 1513,
      "Box": 1514,
      "|,\\": 1515,
      "}_{{\\": 1516,
      "!(": 1517,
      "lbrack": 1518,
      "_{+}": 1519,
      "xp": 1520,
      "otherwise": 1521,
      "Ġ\\{(": 1522,
      "squ": 1523,
      "_{*}": 1524,
      "dp": 1525,
      "tion": 1526,
      "))^{-": 1527,
      "Ġ\\;=\\;": 1528,
      ",\\,\\,\\,": 1529,
      "!}{": 1530,
      "diamond": 1531,
      "}}[": 1532,
      "})}.\\": 1533,
      "Ġ\\;.\\": 1534,
      ")\\}": 1535,
      "xt": 1536,
      "}}\\,\\": 1537,
      "~,\\": 1538,
      "Ġwith": 1539,
      "))-\\": 1540,
      "}+{\\": 1541,
      "kn": 1542,
      "||\\": 1543,
      "Ġ}(\\": 1544,
      ")))": 1545,
      "][": 1546,
      "_+^": 1547,
      "\\:": 1548,
      "&=(": 1549,
      "varsigma": 1550,
      "}\\}\\": 1551,
      "Ġ\\|_": 1552,
      "]\\,": 1553,
      "{}^": 1554,
      "28": 1555,
      ")}^{\\": 1556,
      "]^{-": 1557,
      "^-\\": 1558,
      "35": 1559,
      "ct": 1560,
      "Ġor": 1561,
      "Ġ[(": 1562,
      "^{{": 1563,
      ",~~": 1564,
      "}''": 1565,
      "]}{": 1566,
      "}:\\": 1567,
      "[{\\": 1568,
      "}^*\\": 1569,
      "Ġ\\},\\": 1570,
      "Ġ&(": 1571,
      "jj": 1572,
      "|+|": 1573,
      "xrightarrow": 1574,
      ")={": 1575,
      "\\\\-": 1576,
      "Ġ\\,=\\,": 1577,
      "iu": 1578,
      "|>": 1579,
      "^{*}\\": 1580,
      ",+": 1581,
      "square": 1582,
      "Ġ;\\": 1583,
      "mathr": 1584,
      "kern": 1585,
      ")<\\": 1586,
      "dq": 1587,
      "Ġ\\\\&+": 1588,
      "||_{": 1589,
      ")).": 1590,
      "](\\": 1591,
      ")\\|_": 1592,
      ")=\\{": 1593,
      "'}}": 1594,
      "Id": 1595,
      "hdots": 1596,
      "26": 1597,
      "\\}=\\": 1598,
      "|{\\": 1599,
      "Ġ\\;\\;\\": 1600,
      "yy": 1601,
      "Ġ^{(": 1602,
      "+\\|": 1603,
      "^+_{": 1604,
      "tx": 1605,
      "}}^{-": 1606,
      ")\\}.\\": 1607,
      "_{-}": 1608,
      "|\\,\\": 1609,
      "dk": 1610,
      "ih": 1611,
      "_{\\{\\": 1612,
      "mathring": 1613,
      "40": 1614,
      "=[": 1615,
      "))\\\\": 1616,
      "Du": 1617,
      "ven": 1618,
      "Ġ{{{\\": 1619,
      "Biggr": 1620,
      "_*\\": 1621,
      ":=\\{": 1622,
      "boxtimes": 1623,
      ",{": 1624,
      "Biggl": 1625,
      "{}_{": 1626,
      "gn": 1627,
      "tit": 1628,
      "size": 1629,
      "iff": 1630,
      "yz": 1631,
      "),\\,": 1632,
      "Ġ[-": 1633,
      "'|": 1634,
      "))}{\\": 1635,
      "Ġ\\;,\\": 1636,
      "'}^": 1637,
      "fg": 1638,
      "}\\,\\,": 1639,
      "textit": 1640,
      "xz": 1641,
      "ĠRe": 1642,
      "}\\,,": 1643,
      "aq": 1644,
      "])\\": 1645,
      "cu": 1646,
      "jmath": 1647,
      "sc": 1648,
      "),\\\\&": 1649,
      "Ax": 1650,
      "Ġ\\|^": 1651,
      ")=(-": 1652,
      "triangleq": 1653,
      "|}{\\": 1654,
      "texts": 1655,
      "\\;.\\": 1656,
      "prop": 1657,
      ")$": 1658,
      "|^{-\\": 1659,
      "^{+\\": 1660,
      "},&": 1661,
      "}_{[": 1662,
      "([\\": 1663,
      ")'": 1664,
      "ym": 1665,
      "{}{": 1666,
      "}(|": 1667,
      "}\\|_": 1668,
      "}}}.\\": 1669,
      "})]": 1670,
      "varkappa": 1671,
      "dB": 1672,
      "Ġ\\,\\,\\,": 1673,
      ")}_\\": 1674,
      "}\\;\\": 1675,
      "Ġcon": 1676,
      "lef": 1677,
      ",\\{": 1678,
      "Ġ=:": 1679,
      "Ġ-{\\": 1680,
      "),&": 1681,
      "^+,": 1682,
      "}\\}.\\": 1683,
      "Ġ\\;\\;\\;": 1684,
      ",+\\": 1685,
      "44": 1686,
      "}}|\\": 1687,
      "}^*(": 1688,
      "hd": 1689,
      "Ġ&-": 1690,
      "\\,|\\,": 1691,
      "Ġ'": 1692,
      "lk": 1693,
      "[(\\": 1694,
      "diag": 1695,
      "=\\,\\": 1696,
      "}-{\\": 1697,
      ",(\\": 1698,
      "vol": 1699,
      "dS": 1700,
      "Ġ\\\\(": 1701,
      "96": 1702,
      "})&=": 1703,
      "con": 1704,
      "''_": 1705,
      "+(-": 1706,
      "Ġdiv": 1707,
      "}+{": 1708,
      "'.\\": 1709,
      "|_\\": 1710,
      "^{*}(": 1711,
      "})}(": 1712,
      "qx": 1713,
      "^{|": 1714,
      "}\\!\\": 1715,
      "}]_{": 1716,
      ")]=": 1717,
      "leftarrow": 1718,
      "\\,{\\": 1719,
      "scripts": 1720,
      "Bbb": 1721,
      "})=(": 1722,
      "criptstyle": 1723,
      "scriptscriptstyle": 1724,
      "^*)\\": 1725,
      "ijkl": 1726,
      "propto": 1727,
      "}}{|": 1728,
      "^+}\\": 1729,
      "}}}(": 1730,
      "$}": 1731,
      "}}^\\": 1732,
      "iT": 1733,
      "}\\{\\": 1734,
      "^*-": 1735,
      "*}\\{\\": 1736,
      "}}}}": 1737,
      ")\\,,": 1738,
      "where": 1739,
      "Ġ]\\": 1740,
      "Ġthe": 1741,
      "45": 1742,
      "+\\!": 1743,
      "):\\": 1744,
      "}\\,(": 1745,
      "!\\!\\!\\!\\": 1746,
      "^{\\,": 1747,
      "'}(\\": 1748,
      "&(": 1749,
      "')=": 1750,
      ",...": 1751,
      "Df": 1752,
      "Ġ\\\\=": 1753,
      "))_{": 1754,
      "'})": 1755,
      "ny": 1756,
      "Ġdet": 1757,
      "dm": 1758,
      "Ġ+{\\": 1759,
      "ib": 1760,
      "nn": 1761,
      "Ġ:\\": 1762,
      "thin": 1763,
      "')}": 1764,
      "thinspace": 1765,
      ")[\\": 1766,
      ",&\\": 1767,
      "]{\\": 1768,
      "]-\\": 1769,
      "Ġ{}": 1770,
      "'_\\": 1771,
      "+}\\": 1772,
      "hline": 1773,
      "Ġ}^": 1774,
      "Ġab": 1775,
      "}+(\\": 1776,
      "xu": 1777,
      "|+\\": 1778,
      ")_+": 1779,
      "|)\\": 1780,
      "<-": 1781,
      "AA": 1782,
      "iq": 1783,
      "||^": 1784,
      "\\,.": 1785,
      "ies": 1786,
      "_{[\\": 1787,
      "#\\": 1788,
      "bd": 1789,
      "kr": 1790,
      "nc": 1791,
      "''\\": 1792,
      "}{\\|": 1793,
      "Ġ~=~": 1794,
      "\\},\\\\": 1795,
      "Ġ={\\": 1796,
      ")\\}\\": 1797,
      "})},\\": 1798,
      "ĠIm": 1799,
      ":\\:\\": 1800,
      ")!}{": 1801,
      ")|=": 1802,
      "},\\\\&": 1803,
      "').\\": 1804,
      ";.\\": 1805,
      "SU": 1806,
      "}~~": 1807,
      ")!(": 1808,
      ",}": 1809,
      "|\\\\": 1810,
      ")+(\\": 1811,
      "}].\\": 1812,
      "tin": 1813,
      "}}{(\\": 1814,
      ")].\\": 1815,
      "]}{\\": 1816,
      ")&=(": 1817,
      "\\}^{": 1818,
      "lm": 1819,
      "nq": 1820,
      "*}=": 1821,
      "=}\\": 1822,
      "Ġ~~~~": 1823,
      "Ġ~~~": 1824,
      "Ġ\\\\=&": 1825,
      "Ġexp": 1826,
      "100": 1827,
      "_+}": 1828,
      "^*}\\": 1829,
      "na": 1830,
      "60": 1831,
      "out": 1832,
      "^{-(\\": 1833,
      "$\\": 1834,
      "&-\\": 1835,
      "')=\\": 1836,
      "}}).\\": 1837,
      "}\\;\\;": 1838,
      "texttt": 1839,
      "te": 1840,
      "Ġ}+\\": 1841,
      "au": 1842,
      ",\\;\\;": 1843,
      "}}\\|": 1844,
      "}*": 1845,
      "}{}^{": 1846,
      "Ġ=\\,": 1847,
      "Ġid": 1848,
      ")]^": 1849,
      "}{}_{": 1850,
      "Longleftrightarrow": 1851,
      "^{*}_{": 1852,
      "-}": 1853,
      "TM": 1854,
      "}'\\": 1855,
      "dA": 1856,
      "he": 1857,
      "Longrightarrow": 1858,
      "];": 1859,
      "kk": 1860,
      "|}{|": 1861,
      "Ġ}+": 1862,
      "})^\\": 1863,
      "}}},\\": 1864,
      "}-{": 1865,
      "mk": 1866,
      "43": 1867,
      "Ġ({": 1868,
      "px": 1869,
      "def": 1870,
      ")}{(\\": 1871,
      "'+\\": 1872,
      "tiny": 1873,
      "Tx": 1874,
      ")!}{(": 1875,
      "'}{\\": 1876,
      "))|": 1877,
      "Ġco": 1878,
      ",\\,\\,\\": 1879,
      "]=[": 1880,
      "_{<": 1881,
      "},...,": 1882,
      "impl": 1883,
      "^*_\\": 1884,
      "Ġ||\\": 1885,
      ",}\\": 1886,
      "uu": 1887,
      "dxdy": 1888,
      "ak": 1889,
      "}}(-": 1890,
      "^{+}": 1891,
      "\\}\\\\": 1892,
      "Ġ14": 1893,
      "low": 1894,
      "'-\\": 1895,
      "intertext": 1896,
      ")&:=\\": 1897,
      "Ġ\\>": 1898,
      "))(\\": 1899,
      "],\\\\": 1900,
      ".\\\\\\": 1901,
      "implies": 1902,
      "km": 1903,
      "Ġ=&\\": 1904,
      "Ġeven": 1905,
      "}}{{\\": 1906,
      "arctan": 1907,
      "$}\\": 1908,
      "50": 1909,
      "Ġxy": 1910,
      ")}^{-": 1911,
      "et": 1912,
      ")\\|_{\\": 1913,
      "_{-}(": 1914,
      "scriptstyle": 1915,
      "Ġ}}{": 1916,
      "}]=\\": 1917,
      "\\!-\\!": 1918,
      "enspace": 1919,
      "37": 1920,
      "\\}^": 1921,
      "mathit": 1922,
      "xq": 1923,
      "kp": 1924,
      "Ġ})": 1925,
      "_{_{": 1926,
      "Ġeff": 1927,
      "Ġ|_{": 1928,
      "Ġodd": 1929,
      "^{*,": 1930,
      "CD": 1931,
      "},\\;": 1932,
      ")^*\\": 1933,
      ")\\|\\": 1934,
      "^*+": 1935,
      ")/(": 1936,
      ")}[": 1937,
      "zz": 1938,
      "99": 1939,
      ",|": 1940,
      "Ġ}\\,": 1941,
      "Ġ+{": 1942,
      "\\;,\\": 1943,
      "}/{": 1944,
      "kt": 1945,
      "^*,\\": 1946,
      "{$\\": 1947,
      "Ġ)}\\": 1948,
      "SO": 1949,
      "*}=\\": 1950,
      "}\\|_{\\": 1951,
      "!}.\\": 1952,
      ":=(": 1953,
      ")}}.\\": 1954,
      "jx": 1955,
      "ka": 1956,
      "^*=": 1957,
      "\\|(": 1958,
      "Au": 1959,
      "rank": 1960,
      "bigwedge": 1961,
      "iA": 1962,
      "Ġ)^{-": 1963,
      "zq": 1964,
      "Ġ-(\\": 1965,
      "ĠdV": 1966,
      "\\{-\\": 1967,
      "ly": 1968,
      "rad": 1969,
      "xxx": 1970,
      "'},": 1971,
      "ms": 1972,
      ")})=": 1973,
      ")(-": 1974,
      ")}}(": 1975,
      "_+,": 1976,
      "ur": 1977,
      ")}|\\": 1978,
      "}^{{\\": 1979,
      "+[": 1980,
      "ke": 1981,
      "=\\|": 1982,
      "Ġdw": 1983,
      "Ti": 1984,
      "cfrac": 1985,
      "*}<": 1986,
      "}((\\": 1987,
      "}],": 1988,
      "}||": 1989,
      "}})=": 1990,
      "})).\\": 1991,
      "!\\!\\!": 1992,
      "BC": 1993,
      "aa": 1994,
      "~,": 1995,
      "}=&": 1996,
      ")\\;.\\": 1997,
      "$}.\\": 1998,
      ")}).\\": 1999,
      "}})^{": 2000,
      "^{+}(": 2001,
      "Ġthat": 2002,
      "_*}": 2003,
      "},~": 2004,
      "llll": 2005,
      "coth": 2006,
      "}{}^": 2007,
      "}):=\\": 2008,
      "Ġ32": 2009,
      "'),": 2010,
      "]&": 2011,
      "Ġ}_": 2012,
      "Ġ}-": 2013,
      "Ġ={": 2014,
      "ĠdS": 2015,
      "by": 2016,
      "_{+}(": 2017,
      "Ad": 2018,
      "+\\,": 2019,
      "nf": 2020,
      "Ġ([": 2021,
      "})&=\\": 2022,
      "Ġ)(": 2023,
      "^*_{\\": 2024,
      "bigsqcup": 2025,
      "ome": 2026,
      "Tilde": 2027,
      "'|^": 2028,
      "NR": 2029,
      "tf": 2030,
      "succ": 2031,
      "Ġ,\\\\\\": 2032,
      ")],\\": 2033,
      "\\,=\\,": 2034,
      "&=-\\": 2035,
      "''_{": 2036,
      "Ġas": 2037,
      "^{(+": 2038,
      "Ġ\\|_{\\": 2039,
      "_{}": 2040,
      ")&:=": 2041,
      "]},": 2042,
      "))^{\\": 2043,
      "''(\\": 2044,
      "000": 2045,
      "emph": 2046,
      ";\\,": 2047,
      "\\}}(": 2048,
      "nb": 2049,
      "57": 2050,
      "AX": 2051,
      "sgn": 2052,
      "}_-": 2053,
      "dP": 2054,
      "Ġ&&\\": 2055,
      "')^{-": 2056,
      "dcases": 2057,
      "]}_{": 2058,
      "dh": 2059,
      "{\\{": 2060,
      "_{_": 2061,
      "})|\\": 2062,
      "Ġ\\,.": 2063,
      "tA": 2064,
      "script": 2065,
      ")!\\": 2066,
      "ae": 2067,
      "ess": 2068,
      "}_{\\{": 2069,
      "Ġ=(\\": 2070,
      "}),\\\\": 2071,
      "})}{(": 2072,
      "))&=": 2073,
      "}[(": 2074,
      ")\\;,\\": 2075,
      "bx": 2076,
      "Ġ\\!\\": 2077,
      "Ġ((\\": 2078,
      "ute": 2079,
      "))\\\\&=": 2080,
      "42": 2081,
      "!}{(": 2082,
      "02": 2083,
      "}'_": 2084,
      "po": 2085,
      "'))": 2086,
      "jlim": 2087,
      ")|.\\": 2088,
      "_*^": 2089,
      "\\{-": 2090,
      "arpo": 2091,
      "]+[": 2092,
      "[{": 2093,
      "jn": 2094,
      "tz": 2095,
      "^{|\\": 2096,
      "tabul": 2097,
      "}{=}": 2098,
      "^{+}_{": 2099,
      "tabular": 2100,
      "}_*": 2101,
      "&=&": 2102,
      "*}(-": 2103,
      "}\\:": 2104,
      "acute": 2105,
      "CS": 2106,
      "Ġ}{(": 2107,
      "Ġwhere": 2108,
      "}|_{\\": 2109,
      ")\\\\=&": 2110,
      "})\\\\&": 2111,
      "'),\\": 2112,
      ")\\!": 2113,
      "^+(\\": 2114,
      "'},\\": 2115,
      ",~\\": 2116,
      "]}.\\": 2117,
      "Ġdf": 2118,
      ")|}{": 2119,
      "])=": 2120,
      "dash": 2121,
      ")|}": 2122,
      "res": 2123,
      "ĠdB": 2124,
      "Ġ\\,\\,\\": 2125,
      "}({": 2126,
      "{{{": 2127,
      "{.": 2128,
      "}^{*}\\": 2129,
      "loc": 2130,
      "},{": 2131,
      "Ġad": 2132,
      "Ġ&=(": 2133,
      "ccccc": 2134,
      "]=-": 2135,
      "}\\;.\\": 2136,
      "pp": 2137,
      "}}{{": 2138,
      "&:=": 2139,
      "&:=\\": 2140,
      ",\\;\\": 2141,
      "very": 2142,
      "]}^{": 2143,
      ")})^": 2144,
      "'}^{": 2145,
      "vv": 2146,
      "}+|": 2147,
      ")))\\": 2148,
      "}^{+}\\": 2149,
      "80": 2150,
      "ru": 2151,
      "}(\\{": 2152,
      ")-(\\": 2153,
      ";\\;\\;\\": 2154,
      "rhd": 2155,
      "\\\\&+\\": 2156,
      "triangleright": 2157,
      ")\\\\&+\\": 2158,
      "]_\\": 2159,
      "Ġsu": 2160,
      "),\\;": 2161,
      "''}": 2162,
      "cz": 2163,
      "kf": 2164,
      "}],\\": 2165,
      "$.}\\": 2166,
      "}){\\": 2167,
      ")}\\,\\": 2168,
      "Ġsome": 2169,
      "\\;\\;": 2170,
      "nmid": 2171,
      "})+(": 2172,
      "supp": 2173,
      "_-^": 2174,
      "ikx": 2175,
      "\\}}|": 2176,
      "bigotimes": 2177,
      "|\\\\&\\": 2178,
      "67": 2179,
      "ns": 2180,
      "tv": 2181,
      "|}.\\": 2182,
      "|<\\": 2183,
      "}}_\\": 2184,
      "}=(-": 2185,
      "Ġ)_{": 2186,
      "'}_{": 2187,
      "]).\\": 2188,
      "}...": 2189,
      "}}},": 2190,
      "\\\\=&": 2191,
      ")}},\\": 2192,
      "41": 2193,
      "\\})\\": 2194,
      "||_": 2195,
      "^+)": 2196,
      "_+(\\": 2197,
      "_*(\\": 2198,
      "}^{+}(": 2199,
      "rtimes": 2200,
      "}|=": 2201,
      "Ġ(|\\": 2202,
      ";\\;\\;\\;": 2203,
      "_{+}\\": 2204,
      "})\\\\&=": 2205,
      "ju": 2206,
      "arge": 2207,
      "CP": 2208,
      "jm": 2209,
      "\\\\&+": 2210,
      "}}&": 2211,
      "}=&\\": 2212,
      "Ġ|{\\": 2213,
      "textsf": 2214,
      "bigvee": 2215,
      "Ġevery": 2216,
      "^*=\\": 2217,
      "29": 2218,
      "}](": 2219,
      "Ġ&\\\\": 2220,
      "Ġ13": 2221,
      "scriptsize": 2222,
      "=(-": 2223,
      "|(\\": 2224,
      "^{-}(": 2225,
      "yx": 2226,
      "Ġ\\\\-\\": 2227,
      "land": 2228,
      "}_{(\\": 2229,
      "Ġ}.": 2230,
      "}\\,{\\": 2231,
      "Ġotherwise": 2232,
      "el": 2233,
      "ai": 2234,
      "},-": 2235,
      "Ġ\\;,": 2236,
      "}^{-}(": 2237,
      "}~.\\": 2238,
      "NC": 2239,
      "]},\\": 2240,
      ")}(-": 2241,
      "Ġ\\|(": 2242,
      "-[": 2243,
      "dF": 2244,
      "ev": 2245,
      "ĠdX": 2246,
      "}-(\\": 2247,
      "Var": 2248,
      "Ġ\\}.": 2249,
      "}\\},\\": 2250,
      "ĠRic": 2251,
      "nz": 2252,
      "Ġ&-\\": 2253,
      ";,\\": 2254,
      "Sp": 2255,
      "}|}\\": 2256,
      "}'(\\": 2257,
      ")~.\\": 2258,
      "~~~~~~~~~~~~~~~~": 2259,
      "Ġ}-\\": 2260,
      "ef": 2261,
      "..,": 2262,
      ":\\:": 2263,
      "}\\;,\\": 2264,
      "]]": 2265,
      "me": 2266,
      "qt": 2267,
      "vmatrix": 2268,
      "})}=": 2269,
      ")}&=\\": 2270,
      "^{-}": 2271,
      "dxdt": 2272,
      "],[": 2273,
      "75": 2274,
      "})},": 2275,
      "\\|=": 2276,
      "az": 2277,
      "Ġ)+": 2278,
      "Ġch": 2279,
      "lt": 2280,
      "}^{}": 2281,
      ")=[": 2282,
      "longmapsto": 2283,
      "49": 2284,
      "ue": 2285,
      "=\\{\\": 2286,
      "Ġmod": 2287,
      "BA": 2288,
      "]&=": 2289,
      "^*}(": 2290,
      "ca": 2291,
      "nj": 2292,
      "rk": 2293,
      "}{[": 2294,
      "Ġdm": 2295,
      "}|}": 2296,
      "Ġ).": 2297,
      "\\},\\{": 2298,
      "+\\|\\": 2299,
      "Ġdiag": 2300,
      "|-\\": 2301,
      "}\\},": 2302,
      "Ġ|(": 2303,
      "'}.\\": 2304,
      "'}=": 2305,
      ",|\\": 2306,
      "TX": 2307,
      "dT": 2308,
      "sign": 2309,
      "Ġ24": 2310,
      ")|_": 2311,
      "_{-}\\": 2312,
      "*}&(": 2313,
      "\\!\\!": 2314,
      "})^*": 2315,
      "},(": 2316,
      ")*": 2317,
      "]\\\\&=": 2318,
      "hphantom": 2319,
      "Ġ=\\{": 2320,
      "\\\\(": 2321,
      ")|_{\\": 2322,
      ")}),\\": 2323,
      "nh": 2324,
      "):=(": 2325,
      "Ġconst": 2326,
      "88": 2327,
      "bq": 2328,
      "Ġto": 2329,
      "UV": 2330,
      "cx": 2331,
      "}{-": 2332,
      "(\\|\\": 2333,
      "Ġdp": 2334,
      "Ġ)^{\\": 2335,
      "iH": 2336,
      "js": 2337,
      "lr": 2338,
      "Ġdg": 2339,
      "itH": 2340,
      "preceq": 2341,
      "Ġ11": 2342,
      "NS": 2343,
      "}>\\": 2344,
      "Ġ}_{\\": 2345,
      ")]=\\": 2346,
      "_{+,": 2347,
      "dY": 2348,
      "asy": 2349,
      "curl": 2350,
      "/(\\": 2351,
      "dle": 2352,
      "}*\\": 2353,
      ".\\\\": 2354,
      ")}\\\\&\\": 2355,
      "dist": 2356,
      ",\\,\\,\\,\\,\\,\\,\\,\\": 2357,
      "55": 2358,
      "^{-|": 2359,
      "})\\,\\": 2360,
      ")_{(": 2361,
      "\\}+\\": 2362,
      "xv": 2363,
      "Ġ!": 2364,
      "_{(-": 2365,
      "}}=-\\": 2366,
      "ĠdA": 2367,
      "_-,": 2368,
      "ST": 2369,
      "]})": 2370,
      "{,": 2371,
      "}}:=\\": 2372,
      "})}=\\": 2373,
      "bigtriangle": 2374,
      "Ġany": 2375,
      "{-}": 2376,
      "const": 2377,
      "ku": 2378,
      "|~": 2379,
      "thing": 2380,
      "}}),\\": 2381,
      "^{-{": 2382,
      ")>\\": 2383,
      "vdash": 2384,
      "}))=": 2385,
      "ext": 2386,
      ")\\\\=&\\": 2387,
      "middle": 2388,
      "^-}": 2389,
      "AC": 2390,
      "\\}\\,": 2391,
      "]^\\": 2392,
      "cb": 2393,
      "qr": 2394,
      ")\\},\\": 2395,
      "dotsb": 2396,
      "_{\\|": 2397,
      "Ġdk": 2398,
      ")=|": 2399,
      "\\{|": 2400,
      "Ġ~.\\": 2401,
      "+~": 2402,
      "-(-": 2403,
      "plus": 2404,
      "tq": 2405,
      "~}": 2406,
      "Ġ&{\\": 2407,
      ")}:=\\": 2408,
      ")^+": 2409,
      "})=-\\": 2410,
      "span": 2411,
      "Res": 2412,
      "^{\\{": 2413,
      "varno": 2414,
      ")+{\\": 2415,
      "varnothing": 2416,
      "\\}_": 2417,
      "Ġdim": 2418,
      ")|=\\": 2419,
      "'^{": 2420,
      "}\\,\\,\\": 2421,
      "})/": 2422,
      "^{\\#": 2423,
      "Ġdis": 2424,
      ",\\\\(": 2425,
      ">=\\": 2426,
      "*}_{": 2427,
      "-\\|": 2428,
      "}^+\\": 2429,
      "~~~\\": 2430,
      "av": 2431,
      "mo": 2432,
      "rx": 2433,
      "xf": 2434,
      "Ġ}^{(": 2435,
      "Ġ\\!\\!": 2436,
      "_{>": 2437,
      "(\\{\\": 2438,
      "}}[\\": 2439,
      ")^{-(": 2440,
      "),\\\\&\\": 2441,
      "90": 2442,
      "Ġ{-": 2443,
      "Ġ_{-": 2444,
      "'',": 2445,
      "|=|": 2446,
      "DF": 2447,
      "]}(\\": 2448,
      "Ġ})\\": 2449,
      "*}||": 2450,
      "dR": 2451,
      "dn": 2452,
      "ja": 2453,
      "med": 2454,
      "mkern": 2455,
      "ner": 2456,
      "|}(": 2457,
      "Ġ&<": 2458,
      "-\\,": 2459,
      "Ġdq": 2460,
      "dotsm": 2461,
      "=~\\": 2462,
      "mx": 2463,
      "})&": 2464,
      "^*.\\": 2465,
      "72": 2466,
      "]}=": 2467,
      "}})=\\": 2468,
      ")}&": 2469,
      "\\,|\\,\\": 2470,
      "&=-": 2471,
      "_{[-": 2472,
      "sr": 2473,
      "Ġ&+\\": 2474,
      "}):=": 2475,
      "^-,": 2476,
      "boxplus": 2477,
      "gx": 2478,
      "pk": 2479,
      "|-|": 2480,
      "Ġ)}{": 2481,
      "gen": 2482,
      "Tf": 2483,
      "YM": 2484,
      "fo": 2485,
      "sion": 2486,
      "intercal": 2487,
      "')^{": 2488,
      "ks": 2489,
      "lcl": 2490,
      "*}{{\\": 2491,
      "subar": 2492,
      "atur": 2493,
      "}]}": 2494,
      "subarray": 2495,
      "db": 2496,
      "gf": 2497,
      "sx": 2498,
      "Ġ+(\\": 2499,
      "),~": 2500,
      "searrow": 2501,
      "dE": 2502,
      "kd": 2503,
      "|)^{": 2504,
      "}^{|": 2505,
      "}}\\\\&\\": 2506,
      "\\,{": 2507,
      "ĠSO": 2508,
      ")\\\\&+": 2509,
      "atural": 2510,
      "';": 2511,
      "circle": 2512,
      "Ġ>\\": 2513,
      ")|\\,": 2514,
      "pn": 2515,
      "tbinom": 2516,
      "}^{{": 2517,
      "}^+(": 2518,
      ")-{\\": 2519,
      ")\\,.": 2520,
      "*}(-\\": 2521,
      "Vol": 2522,
      "{\\|\\": 2523,
      "}})^": 2524,
      "^{++": 2525,
      "tw": 2526,
      ")}&=": 2527,
      "}}\\;": 2528,
      "'')": 2529,
      "})=-": 2530,
      "^-(\\": 2531,
      "}~,\\": 2532,
      "Ġsuch": 2533,
      "'}=\\": 2534,
      "}^-(": 2535,
      "overbrace": 2536,
      ")^{|\\": 2537,
      "^-)": 2538,
      "))^\\": 2539,
      ",~~~": 2540,
      "{}\\": 2541,
      "}}]": 2542,
      "doteq": 2543,
      ")&=-\\": 2544,
      "supseteq": 2545,
      "47": 2546,
      "KL": 2547,
      "ominus": 2548,
      "}}}}\\": 2549,
      "))_": 2550,
      "Ġ{}_": 2551,
      ":\\;": 2552,
      "Ġ~~\\": 2553,
      "&\\\\": 2554,
      "li": 2555,
      ")}]": 2556,
      ")}{|\\": 2557,
      "''+": 2558,
      "CC": 2559,
      "jp": 2560,
      ")}&\\": 2561,
      "ĠAx": 2562,
      "')(": 2563,
      "52": 2564,
      "Ġ...,": 2565,
      "}}}=\\": 2566,
      "}})(": 2567,
      ")],": 2568,
      "})\\\\&\\": 2569,
      "}^{+}": 2570,
      "natural": 2571,
      "qz": 2572,
      "Ġ/\\": 2573,
      "tharpo": 2574,
      ")\\;\\": 2575,
      "}}),": 2576,
      "}_{-\\": 2577,
      "Ġ[-\\": 2578,
      "\\!+\\!": 2579,
      "~~~.\\": 2580,
      "Ker": 2581,
      "TA": 2582,
      "\\}|": 2583,
      "cy": 2584,
      "hen": 2585,
      "vu": 2586,
      "|/": 2587,
      "}):": 2588,
      "\\,(\\": 2589,
      ")|}{|": 2590,
      "Ġ~,\\": 2591,
      ",...,\\": 2592,
      "mb": 2593,
      "qp": 2594,
      "{[\\": 2595,
      "Ġ))": 2596,
      "Ġ18": 2597,
      "^\\#": 2598,
      "ĠVol": 2599,
      "...,\\": 2600,
      "!}{\\": 2601,
      "'/": 2602,
      "ay": 2603,
      "}}|^": 2604,
      "Ġ15": 2605,
      "Ġ\\,{\\": 2606,
      ")})=\\": 2607,
      "#\\{": 2608,
      ">=": 2609,
      "\\!\\!\\": 2610,
      "\\\\=&\\": 2611,
      "^*)^": 2612,
      "}+\\|": 2613,
      "ree": 2614,
      ")}},": 2615,
      "asymp": 2616,
      "tg": 2617,
      "},\\,\\": 2618,
      "ĠId": 2619,
      "hook": 2620,
      ")~\\": 2621,
      "]:": 2622,
      "wt": 2623,
      "Ġmax": 2624,
      "}}/": 2625,
      "}=[": 2626,
      "}}{=}": 2627,
      "128": 2628,
      "}]_": 2629,
      "_+)": 2630,
      "((-": 2631,
      "54": 2632,
      "lj": 2633,
      "}}}{(": 2634,
      "|\\;": 2635,
      "orner": 2636,
      "'}_": 2637,
      "=|\\": 2638,
      "ux": 2639,
      ")}}{(": 2640,
      "\\\\-\\": 2641,
      "))&=\\": 2642,
      "_-(\\": 2643,
      "^{+}\\": 2644,
      "kz": 2645,
      "nr": 2646,
      "varGamma": 2647,
      "Ġ20": 2648,
      "\\|=\\": 2649,
      ")](": 2650,
      ")}\\,.\\": 2651,
      "Ġ\\}}": 2652,
      "}\\|^{": 2653,
      ")},\\\\": 2654,
      "^+,\\": 2655,
      "_{+}^{": 2656,
      "},\\\\&\\": 2657,
      "]&\\": 2658,
      "cq": 2659,
      "^{*}(\\": 2660,
      "}}\\\\&": 2661,
      "\\{(\\": 2662,
      "ĠSU": 2663,
      "hookrightarrow": 2664,
      "38": 2665,
      "Co": 2666,
      "Lu": 2667,
      "+\\,\\": 2668,
      "Ġ}}{\\": 2669,
      "Ġmin": 2670,
      "}^{(-": 2671,
      ",\\,\\,\\,\\,": 2672,
      ")~,\\": 2673,
      "]}}": 2674,
      "{}_\\": 2675,
      "}',": 2676,
      "~{\\": 2677,
      "endaligned": 2678,
      "ord": 2679,
      "Ġdxdt": 2680,
      "HS": 2681,
      "reg": 2682,
      "|&\\": 2683,
      "~~~~\\": 2684,
      "~~~,\\": 2685,
      "&&\\": 2686,
      "Hom": 2687,
      "Tu": 2688,
      "jb": 2689,
      "kq": 2690,
      "ls": 2691,
      "^{}": 2692,
      "}^{\\,": 2693,
      "Ġvol": 2694,
      "Ġsin": 2695,
      "^+_{\\": 2696,
      "iw": 2697,
      "~=~": 2698,
      "112": 2699,
      "66": 2700,
      "gtr": 2701,
      "str": 2702,
      "tL": 2703,
      ",\\;\\;\\;": 2704,
      "}^{*}(": 2705,
      "}\\,.": 2706,
      "bigtriangleup": 2707,
      "']": 2708,
      "')-": 2709,
      "[[": 2710,
      "un": 2711,
      "|},": 2712,
      "|},\\": 2713,
      "ale": 2714,
      "),&\\": 2715,
      "!)^": 2716,
      "jr": 2717,
      "zx": 2718,
      "}}}=": 2719,
      "....": 2720,
      ")]^{": 2721,
      "ect": 2722,
      "GL": 2723,
      "sb": 2724,
      "}(|\\": 2725,
      "=\\!": 2726,
      "}}&=\\": 2727,
      "^{-}_{": 2728,
      "}}\\|\\": 2729,
      ")}\\|": 2730,
      "}|^{\\": 2731,
      "}}({\\": 2732,
      ")\\\\&=(": 2733,
      ";\\;\\;\\;\\;\\;\\;\\;\\": 2734,
      "dc": 2735,
      "rbrack": 2736,
      "Ġ)\\,": 2737,
      "}\\}_{": 2738,
      ")}\\\\&=": 2739,
      ")}^\\": 2740,
      "Ġ{}^": 2741,
      ")((": 2742,
      "*}({\\": 2743,
      ")&=-": 2744,
      "]}}(": 2745,
      "rightharpo": 2746,
      "onu": 2747,
      "{}_{\\": 2748,
      "_{\\,": 2749,
      "onup": 2750,
      "BR": 2751,
      "iS": 2752,
      "_{*": 2753,
      "\\|.\\": 2754,
      "III": 2755,
      "')+": 2756,
      "iX": 2757,
      "tX": 2758,
      ")\\:": 2759,
      "Ġdh": 2760,
      "),(\\": 2761,
      "Ġ|^{": 2762,
      "...+": 2763,
      "_-}": 2764,
      "}^*_": 2765,
      "note": 2766,
      "^{*,\\": 2767,
      "78": 2768,
      "}}&=": 2769,
      "Ġdd": 2770,
      "Ġ)+\\": 2771,
      "_*,": 2772,
      "'|\\": 2773,
      "BS": 2774,
      "kh": 2775,
      "|+|\\": 2776,
      "})),\\": 2777,
      ")}=-\\": 2778,
      "abcd": 2779,
      "pres": 2780,
      "'}}\\": 2781,
      "68": 2782,
      "bt": 2783,
      "so": 2784,
      "|)^": 2785,
      "Ġ)-": 2786,
      "}{*{": 2787,
      "Ġ,\\\\&": 2788,
      ")||": 2789,
      "_-)": 2790,
      "JX": 2791,
      "vw": 2792,
      "enskip": 2793,
      "af": 2794,
      "bs": 2795,
      "ky": 2796,
      "xe": 2797,
      "Ġat": 2798,
      "*}<\\": 2799,
      "=\\;\\": 2800,
      "otnote": 2801,
      ")}:=": 2802,
      "Ġ\\\\{\\": 2803,
      "Ġit": 2804,
      "odd": 2805,
      "\\}}|\\": 2806,
      "})\\\\&=\\": 2807,
      "textsc": 2808,
      "footnote": 2809,
      "58": 2810,
      "fF": 2811,
      "mc": 2812,
      "0000": 2813,
      ")),\\\\": 2814,
      "1234": 2815,
      "Ġ}\\;": 2816,
      "}&=(": 2817,
      "genfrac": 2818,
      "]&=\\": 2819,
      "kb": 2820,
      "}},\\\\": 2821,
      ")}\\\\&": 2822,
      "}^{-}\\": 2823,
      "]=-\\": 2824,
      "succeq": 2825,
      ")\\},": 2826,
      "^{-{\\": 2827,
      "rob": 2828,
      "}||_{": 2829,
      ")}),": 2830,
      "medskip": 2831,
      "rightharpoonup": 2832,
      "*(": 2833,
      "mi": 2834,
      "Ġma": 2835,
      "Ġint": 2836,
      "_{}(": 2837,
      "(\\,": 2838,
      "Ġ,\\,": 2839,
      "}:=\\{": 2840,
      ">_{": 2841,
      "jf": 2842,
      "vphantom": 2843,
      "*}+": 2844,
      "^{[\\": 2845,
      "{\\,": 2846,
      "}}}(\\": 2847,
      "}}&\\": 2848,
      ")}:": 2849,
      "\\;,": 2850,
      "SI": 2851,
      "iD": 2852,
      "iR": 2853,
      "|.": 2854,
      "})}(\\": 2855,
      "ĠII": 2856,
      "Ġ\\;\\;\\;\\;": 2857,
      "=-(": 2858,
      "^*}{": 2859,
      "iB": 2860,
      "zw": 2861,
      "-\\!\\": 2862,
      "hom": 2863,
      "Ġ{|": 2864,
      "'})\\": 2865,
      "<+\\": 2866,
      ")}/": 2867,
      "}||\\": 2868,
      "new": 2869,
      ",~~\\": 2870,
      ";\\\\\\": 2871,
      "AD": 2872,
      "Li": 2873,
      "\\}+": 2874,
      "},[": 2875,
      ")})^{-": 2876,
      "}')": 2877,
      "}))=\\": 2878,
      "_+-": 2879,
      "_+}\\": 2880,
      "break": 2881,
      "')}\\": 2882,
      "PQ": 2883,
      "]}=\\": 2884,
      "rd": 2885,
      "Ġln": 2886,
      "Ġ}}}": 2887,
      "Ġ\\,|\\,": 2888,
      "cript": 2889,
      "prescript": 2890,
      "..\\": 2891,
      "mt": 2892,
      "120": 2893,
      "}|.\\": 2894,
      ")|}\\": 2895,
      "$},": 2896,
      "dZ": 2897,
      "hf": 2898,
      "hk": 2899,
      "Ġ\\:\\": 2900,
      "}{}{": 2901,
      "})_\\": 2902,
      ")};": 2903,
      "Ġsign": 2904,
      "projlim": 2905,
      "):=\\{": 2906,
      "!},\\": 2907,
      "'}^{(": 2908,
      ")'(": 2909,
      "))=(": 2910,
      "MA": 2911,
      "TB": 2912,
      "{}^{": 2913,
      "*}+\\": 2914,
      "}};": 2915,
      "''}{": 2916,
      "^-}\\": 2917,
      ")}}=": 2918,
      "]-[": 2919,
      "$},\\": 2920,
      "])=\\": 2921,
      "sw": 2922,
      "tot": 2923,
      "Ġan": 2924,
      "+}(": 2925,
      "Af": 2926,
      "\\,\\,\\": 2927,
      "be": 2928,
      "mj": 2929,
      "{_": 2930,
      "varprojlim": 2931,
      "Ġ{(\\": 2932,
      "~~~~~": 2933,
      ";\\;\\;\\;\\;\\;": 2934,
      "'}+": 2935,
      ",[\\": 2936,
      ";-": 2937,
      "version": 2938,
      "Ġ\\,(": 2939,
      ")]_": 2940,
      "Ġde": 2941,
      "Ġ...\\": 2942,
      "*}.": 2943,
      "}})}": 2944,
      "})|^": 2945,
      "))]": 2946,
      "}}{|\\": 2947,
      "'''(": 2948,
      ")]_{": 2949,
      "Ġdist": 2950,
      "gtrsim": 2951,
      "'\\,": 2952,
      ")}^{(": 2953,
      "BH": 2954,
      "jy": 2955,
      "mathversion": 2956,
      "Ġik": 2957,
      "\\,,\\\\": 2958,
      "}=\\{\\": 2959,
      "Ġ}|": 2960,
      "_{-,": 2961,
      "]|": 2962,
      "_{_{\\": 2963,
      "coprod": 2964,
      "}\\,=\\,": 2965,
      "'^{-": 2966,
      "70": 2967,
      "eda": 2968,
      "||_{\\": 2969,
      "aligneda": 2970,
      "^*)=": 2971,
      "Ġsym": 2972,
      "ĠSp": 2973,
      "$,}": 2974,
      "alignedat": 2975,
      "TV": 2976,
      "dl": 2977,
      "mr": 2978,
      "*}{{": 2979,
      "tive": 2980,
      "mult": 2981,
      "|\\{": 2982,
      "}}\\\\\\": 2983,
      "<|": 2984,
      "dH": 2985,
      "dM": 2986,
      "dbinom": 2987,
      "hg": 2988,
      "iJ": 2989,
      "}}~": 2990,
      "}}:=": 2991,
      "}^-\\": 2992,
      "})=(\\": 2993,
      "_*)": 2994,
      "ABC": 2995,
      "dL": 2996,
      "jv": 2997,
      "nP": 2998,
      "neg": 2999,
      "|}}": 3000,
      "Ġ^{-\\": 3001,
      "_{,\\": 3002,
      "})-(": 3003,
      ")}_{(": 3004,
      "varPhi": 3005,
      "}_{|": 3006,
      "})\\\\\\": 3007,
      "Ġ[[": 3008,
      "{(}\\": 3009,
      "triangleleft": 3010,
      "39": 3011,
      "ml": 3012,
      "}})^{-": 3013,
      "}_{{": 3014,
      "}\\\\=&\\": 3015,
      "_+,\\": 3016,
      "Ġ\\\\&+\\": 3017,
      ")&=&": 3018,
      ")})^{": 3019,
      "=:": 3020,
      "]\\,.\\": 3021,
      "hx": 3022,
      "pe": 3023,
      "ĠAB": 3024,
      "))}.\\": 3025,
      "Dw": 3026,
      "[|": 3027,
      "large": 3028,
      "*}_": 3029,
      "race": 3030,
      "Ġ\\,&": 3031,
      "))|\\": 3032,
      "}}^{[": 3033,
      "}'_{": 3034,
      "footnotesize": 3035,
      "CM": 3036,
      "\\#": 3037,
      "})]\\": 3038,
      "\\,|": 3039,
      "\\,=\\,\\": 3040,
      "Ġ&=-\\": 3041,
      "')|": 3042,
      ",..,": 3043,
      "76": 3044,
      "AP": 3045,
      "gra": 3046,
      "=\\{(": 3047,
      "}}}^{": 3048,
      "Ġ-|": 3049,
      "^*-\\": 3050,
      "^*+\\": 3051,
      "ĠCh": 3052,
      "Ġ[(\\": 3053,
      "jh": 3054,
      "}\\,(\\": 3055,
      "Ġ|\\{": 3056,
      ")}}}": 3057,
      ")}}=\\": 3058,
      "BD": 3059,
      "mq": 3060,
      "ub": 3061,
      "})^{-\\": 3062,
      "Ġax": 3063,
      "),\\,\\,": 3064,
      "\\{{\\": 3065,
      "real": 3066,
      "}''(": 3067,
      "}}\\,.\\": 3068,
      "=[\\": 3069,
      "iI": 3070,
      "xw": 3071,
      "|>\\": 3072,
      "erms": 3073,
      "lor": 3074,
      "},&\\": 3075,
      "ĠLi": 3076,
      "-}\\": 3077,
      "gr": 3078,
      "jt": 3079,
      "xg": 3080,
      "}{\\|\\": 3081,
      "rcorner": 3082,
      "}|_": 3083,
      "}\\\\=&": 3084,
      "}/(": 3085,
      "59": 3086,
      "ea": 3087,
      "ile": 3088,
      "Ġda": 3089,
      "allow": 3090,
      "}{}_{\\": 3091,
      "}(\\|": 3092,
      "Ġ{}_{": 3093,
      "Ġ&=-": 3094,
      "Ġ}}{{": 3095,
      "aleph": 3096,
      "![": 3097,
      "'}^{\\": 3098,
      ";{\\": 3099,
      "PS": 3100,
      "md": 3101,
      "sa": 3102,
      "Ġ+|": 3103,
      "})}^{": 3104,
      "&=|": 3105,
      "Ġsgn": 3106,
      "underbar": 3107,
      ")]^{-": 3108,
      "stant": 3109,
      "Ġ:\\,": 3110,
      "|=|\\": 3111,
      "))\\\\&": 3112,
      ".,": 3113,
      "lrcorner": 3114,
      "{.}\\": 3115,
      "Ġ=(-": 3116,
      "Ġuv": 3117,
      "Ġ(\\{": 3118,
      "sec": 3119,
      "Ġ&\\;": 3120,
      "''+\\": 3121,
      "_{+}}": 3122,
      ")}=(": 3123,
      "smile": 3124,
      ")~~": 3125,
      "^{^{": 3126,
      "}{(-": 3127,
      "}=:": 3128,
      "Ġnt": 3129,
      "}]+": 3130,
      ";\\;\\;\\;\\;": 3131,
      "!},": 3132,
      "AY": 3133,
      "Bu": 3134,
      "]}_": 3135,
      "})>": 3136,
      "+\\!\\": 3137,
      ")}[\\": 3138,
      "Ġ)}{\\": 3139,
      "]\\!": 3140,
      ")|&\\": 3141,
      "Ġ\\\\&-": 3142,
      "LC": 3143,
      "\\}\\,.\\": 3144,
      "rf": 3145,
      "uz": 3146,
      "{{{\\": 3147,
      "}!": 3148,
      "}}}_{": 3149,
      "})&\\": 3150,
      "\\,}": 3151,
      "Ġ[{\\": 3152,
      "}}=-": 3153,
      ")}\\\\&=\\": 3154,
      "-}(": 3155,
      "46": 3156,
      "TP": 3157,
      "iF": 3158,
      "Ġ\\,\\,\\,\\,": 3159,
      "}([\\": 3160,
      "},-\\": 3161,
      "Ġby": 3162,
      "smallsetminus": 3163,
      "})\\,.\\": 3164,
      "TE": 3165,
      "\\}=\\{": 3166,
      "sym": 3167,
      "zf": 3168,
      "=-{": 3169,
      "}&=&": 3170,
      "&&&": 3171,
      "+}_{": 3172,
      "BB": 3173,
      "|}^": 3174,
      "Ġ].\\": 3175,
      "&=(\\": 3176,
      "}|(": 3177,
      ")\\,=\\,": 3178,
      "Dv": 3179,
      "nT": 3180,
      "sz": 3181,
      "Ġdeg": 3182,
      "Ġ|_{\\": 3183,
      ")+(-": 3184,
      "}^{-}": 3185,
      "''=": 3186,
      "}^*(\\": 3187,
      "@{\\": 3188,
      "ltimes": 3189,
      "}}<\\": 3190,
      ").\\\\\\": 3191,
      ")}\\;": 3192,
      ")\\,{\\": 3193,
      ")]+": 3194,
      "...)": 3195,
      ",~~~~": 3196,
      "/|": 3197,
      "bz": 3198,
      "nR": 3199,
      "qq": 3200,
      "xH": 3201,
      "yu": 3202,
      "}{}_": 3203,
      "}{}^{\\": 3204,
      "}}:": 3205,
      "}}<": 3206,
      "})),": 3207,
      "ngth": 3208,
      ")}\\|_{": 3209,
      "Ġcm": 3210,
      "\\{|\\": 3211,
      "Ġ_{{\\": 3212,
      "^+_\\": 3213,
      ")]^{\\": 3214,
      "nearrow": 3215,
      "SS": 3216,
      "Ġ!}": 3217,
      ")^{[": 3218,
      ")^{(\\": 3219,
      "}-|": 3220,
      ")(|": 3221,
      "&=\\{": 3222,
      "111": 3223,
      "CF": 3224,
      "rj": 3225,
      "sd": 3226,
      "tp": 3227,
      "}^{*": 3228,
      "Ġ&\\,": 3229,
      "(-(": 3230,
      ")|^{\\": 3231,
      ")}\\,,\\": 3232,
      ",\\,\\,\\,\\,\\,": 3233,
      "]}^": 3234,
      "aw": 3235,
      "br": 3236,
      "jq": 3237,
      "rp": 3238,
      "^{}_{": 3239,
      "^{'}": 3240,
      ")\\,\\,": 3241,
      ")=-(": 3242,
      "Ġ,&": 3243,
      "))\\\\&=\\": 3244,
      "05": 3245,
      "98": 3246,
      "rn": 3247,
      "ind": 3248,
      "length": 3249,
      "Ġre": 3250,
      "Ġreg": 3251,
      "})\\|_{": 3252,
      "{(}": 3253,
      ")|=|": 3254,
      "_{-}^{": 3255,
      "/{\\": 3256,
      ":~": 3257,
      "\\&=": 3258,
      "cn": 3259,
      "qc": 3260,
      "zt": 3261,
      "{}^\\": 3262,
      "Ġlog": 3263,
      "^{''": 3264,
      "}{=}\\": 3265,
      "})}}": 3266,
      ")}>": 3267,
      "lap": 3268,
      "})\\;": 3269,
      "_+^{-": 3270,
      "}}=(": 3271,
      ":\\,\\": 3272,
      "pc": 3273,
      "|).\\": 3274,
      "injlim": 3275,
      "}{-\\": 3276,
      "})}.": 3277,
      "varinjlim": 3278,
      "}=\\|": 3279,
      "|,|": 3280,
      ")'\\": 3281,
      "Bar": 3282,
      "MS": 3283,
      "PD": 3284,
      "je": 3285,
      "kR": 3286,
      "lhd": 3287,
      "nv": 3288,
      "sl": 3289,
      "*}\\#": 3290,
      "}))(": 3291,
      "^{-}\\": 3292,
      "Ġbc": 3293,
      ".~": 3294,
      "[\\,": 3295,
      "]:=": 3296,
      "kT": 3297,
      "lu": 3298,
      "})}^": 3299,
      "Ġij": 3300,
      "125": 3301,
      ")|}{\\": 3302,
      ")||_{": 3303,
      "}])": 3304,
      "_+=": 3305,
      "Ġ36": 3306,
      "}[(\\": 3307,
      "Ġ$(": 3308,
      "'d": 3309,
      "hu": 3310,
      "sy": 3311,
      "_{\\#": 3312,
      "}^{[\\": 3313,
      "side": 3314,
      "},\\;\\": 3315,
      ")^{{": 3316,
      "^*)=\\": 3317,
      ")}\\\\\\": 3318,
      "ĠTM": 3319,
      "Ġ\\{-": 3320,
      ")_*": 3321,
      "\\}\\\\&=\\": 3322,
      "dQ": 3323,
      "nl": 3324,
      "sho": 3325,
      "ul": 3326,
      ")+{": 3327,
      "ĠDu": 3328,
      "Ġ\\;.": 3329,
      ")})(": 3330,
      "]=(": 3331,
      "}\\,\\,\\,": 3332,
      "*}{}_": 3333,
      "^{*}}": 3334,
      "$-": 3335,
      "')+\\": 3336,
      "Lip": 3337,
      "aj": 3338,
      "iY": 3339,
      "Det": 3340,
      "&=&\\": 3341,
      "Ġcl": 3342,
      "}),\\\\\\": 3343,
      "jkl": 3344,
      "}}\\,,\\": 3345,
      "cccccc": 3346,
      ":\\:\\:": 3347,
      "03": 3348,
      "77": 3349,
      "kA": 3350,
      "|&=\\": 3351,
      "Ġ],\\": 3352,
      "phys": 3353,
      "});": 3354,
      "intop": 3355,
      "Ġ\\\\(\\": 3356,
      "bound": 3357,
      "}||^": 3358,
      "subsetneq": 3359,
      "}^*_{": 3360,
      "\\},\\\\\\": 3361,
      ")^*(": 3362,
      "Ġ*\\": 3363,
      "WZ": 3364,
      "]),\\": 3365,
      "gs": 3366,
      "iP": 3367,
      "ject": 3368,
      "}~~\\": 3369,
      "Ġ]=": 3370,
      "}})^{\\": 3371,
      "))}{|": 3372,
      "}|}{": 3373,
      "_+^{\\": 3374,
      "$,}\\": 3375,
      "'}-": 3376,
      ":(": 3377,
      "kg": 3378,
      "qa": 3379,
      "ws": 3380,
      "}\\;\\;\\": 3381,
      "(\\,\\": 3382,
      "}}>": 3383,
      ")|+|": 3384,
      "\\\\&=-\\": 3385,
      "Bbbk": 3386,
      "+&": 3387,
      "Pf": 3388,
      "dK": 3389,
      "iN": 3390,
      "iV": 3391,
      "{-(": 3392,
      "})}+\\": 3393,
      "ĠAd": 3394,
      "^*[": 3395,
      ":=(\\": 3396,
      "{(-\\": 3397,
      ")_-": 3398,
      "256": 3399,
      "}}\\\\&=\\": 3400,
      "))\\\\&\\": 3401,
      "BM": 3402,
      "iE": 3403,
      "pd": 3404,
      "rg": 3405,
      "td": 3406,
      "vi": 3407,
      "vx": 3408,
      "},~~": 3409,
      ")}{=}": 3410,
      "_++": 3411,
      "))\\\\\\": 3412,
      "}}^{(\\": 3413,
      "}},{\\": 3414,
      "*}{}": 3415,
      "^{**}": 3416,
      "RS": 3417,
      "bp": 3418,
      "even": 3419,
      "mh": 3420,
      "tb": 3421,
      "}'}": 3422,
      "^*).\\": 3423,
      ")|,\\": 3424,
      "''-": 3425,
      "_-}\\": 3426,
      "}\\\\&+": 3427,
      ";}": 3428,
      "SL": 3429,
      "\\&=\\": 3430,
      "kv": 3431,
      "_{*}\\": 3432,
      "}})_{": 3433,
      "}^*}": 3434,
      ")=:": 3435,
      "},...,\\": 3436,
      ")^{*}": 3437,
      "lined": 3438,
      "^*),": 3439,
      "\\|}": 3440,
      "^-_{\\": 3441,
      "):=-\\": 3442,
      "multlined": 3443,
      "')}{": 3444,
      "'}_{\\": 3445,
      "51": 3446,
      "GS": 3447,
      "TT": 3448,
      "\\}^{\\": 3449,
      "bn": 3450,
      "hc": 3451,
      "py": 3452,
      "tB": 3453,
      "Ġ\\}_{": 3454,
      "}\\}}": 3455,
      "|\\\\&": 3456,
      "}=|": 3457,
      "ĠDf": 3458,
      "subject": 3459,
      "}&:=\\": 3460,
      "^*}^": 3461,
      "pound": 3462,
      "Ai": 3463,
      "Dg": 3464,
      "Tv": 3465,
      "\\}_{\\": 3466,
      "\\}).\\": 3467,
      "_!": 3468,
      "|}}\\": 3469,
      "_{\\!": 3470,
      "opt": 3471,
      ")\\\\=": 3472,
      ")}({\\": 3473,
      "_-}{": 3474,
      "_-,\\": 3475,
      ")}=-": 3476,
      "allowbreak": 3477,
      "pounds": 3478,
      "dU": 3479,
      "nH": 3480,
      "}\\}=": 3481,
      "_{\\{|": 3482,
      "-\\{": 3483,
      "Ġ\\\\=&\\": 3484,
      "Ġ23": 3485,
      "))).\\": 3486,
      "*}{}\\": 3487,
      "}^+_": 3488,
      "65": 3489,
      ">_": 3490,
      "AM": 3491,
      "]\\\\&=\\": 3492,
      "eB": 3493,
      "ipa": 3494,
      "qs": 3495,
      "Ġ&:": 3496,
      "ccl": 3497,
      "^+=": 3498,
      "^+.\\": 3499,
      "^{*}_": 3500,
      "}}+{\\": 3501,
      "qn": 3502,
      "}})-": 3503,
      "})|_{": 3504,
      "\\,,\\,": 3505,
      "))_{\\": 3506,
      ")|,": 3507,
      "\\,\\,\\,": 3508,
      "longleftrightarrow": 3509,
      "&*": 3510,
      "&{\\": 3511,
      "Rf": 3512,
      "XX": 3513,
      "cs": 3514,
      "mf": 3515,
      "rq": 3516,
      "inv": 3517,
      "}\\!\\!": 3518,
      "Ġ&:=\\": 3519,
      "),{\\": 3520,
      "}+(-": 3521,
      "ĠAu": 3522,
      "there": 3523,
      "minipa": 3524,
      "\\\\&-\\": 3525,
      "minipage": 3526,
      "53": 3527,
      "\\}}.\\": 3528,
      "]/": 3529,
      "}}^*": 3530,
      "}}}\\,": 3531,
      "},~\\": 3532,
      "124": 3533,
      "Ġ_{(": 3534,
      ")\\,|\\,": 3535,
      "}&(": 3536,
      "')-\\": 3537,
      "Ay": 3538,
      "Br": 3539,
      "qy": 3540,
      "ri": 3541,
      "uf": 3542,
      "zy": 3543,
      "Ġim": 3544,
      "Ġ\\}=": 3545,
      "^{~": 3546,
      "^{'}(": 3547,
      "}))^": 3548,
      "Ġev": 3549,
      "pan": 3550,
      "Ġ_{{": 3551,
      "\\\\&=(": 3552,
      "'\\\\": 3553,
      "UU": 3554,
      "]\\,,\\": 3555,
      "ach": 3556,
      "bv": 3557,
      "grad": 3558,
      "iL": 3559,
      "jz": 3560,
      "rT": 3561,
      "Ġ}^\\": 3562,
      "der": 3563,
      "erm": 3564,
      "}_{>": 3565,
      "Ġtx": 3566,
      "Ġ(\\|": 3567,
      "}+|\\": 3568,
      "Ġ|}": 3569,
      "ĠCo": 3570,
      ")}((": 3571,
      ")_+\\": 3572,
      "_{+}^": 3573,
      "noalign": 3574,
      "}&=-": 3575,
      "ize": 3576,
      "({{": 3577,
      "Op": 3578,
      "\\}-": 3579,
      "]}|": 3580,
      "kD": 3581,
      "Ġnu": 3582,
      "Ġ\\!\\!\\": 3583,
      "*}^": 3584,
      "}\\!\\!\\": 3585,
      "})[\\": 3586,
      "},\\,\\,": 3587,
      "Ġ\\,:\\,": 3588,
      "}}{[": 3589,
      "_{-}}": 3590,
      "}]}\\": 3591,
      ",~~~\\": 3592,
      "BF": 3593,
      "Dx": 3594,
      "]:=\\": 3595,
      "iG": 3596,
      "|}{|\\": 3597,
      "}}}^": 3598,
      "})^{(": 3599,
      "^*)(": 3600,
      ")}\\|\\": 3601,
      "Ġ_{+": 3602,
      "^+}{": 3603,
      "'')\\": 3604,
      "Ġ48": 3605,
      "*}[{\\": 3606,
      "})\\,,\\": 3607,
      "mode": 3608,
      ";(": 3609,
      ";\\\\&": 3610,
      ">.\\": 3611,
      "DE": 3612,
      "Ind": 3613,
      "Lx": 3614,
      "\\;\\;\\": 3615,
      "ise": 3616,
      "sn": 3617,
      "uw": 3618,
      "Ġ=[": 3619,
      "-\\,\\": 3620,
      "}.\\\\\\": 3621,
      "),~~": 3622,
      "Ġ|(\\": 3623,
      "}](\\": 3624,
      "Ġ~+~": 3625,
      "}}\\\\&=": 3626,
      "Av": 3627,
      "Np": 3628,
      "eu": 3629,
      "kN": 3630,
      "mz": 3631,
      "_{_\\": 3632,
      "}^{}\\": 3633,
      "}_+\\": 3634,
      ")=\\{\\": 3635,
      "Ġ{_": 3636,
      "Ġ}~": 3637,
      "^+)\\": 3638,
      "Ġ|\\,": 3639,
      "ite": 3640,
      "*}\\|(": 3641,
      "}=-{": 3642,
      "arccos": 3643,
      ",+}(": 3644,
      "Ġcos": 3645,
      "sideset": 3646,
      "!}(": 3647,
      ":|": 3648,
      "CR": 3649,
      "])}": 3650,
      "bj": 3651,
      "ben": 3652,
      "drel": 3653,
      "rz": 3654,
      "yp": 3655,
      "=\\|\\": 3656,
      "}})+": 3657,
      "Ġex": 3658,
      "Ġpt": 3659,
      "}}{\\|": 3660,
      "}\\\\-": 3661,
      ")}}(\\": 3662,
      "}/{\\": 3663,
      "}=-{\\": 3664,
      ".(": 3665,
      "ee": 3666,
      "gy": 3667,
      "pu": 3668,
      "tH": 3669,
      "|}=\\": 3670,
      "Ġ^*": 3671,
      "alg": 3672,
      "tic": 3673,
      "Ġ&>": 3674,
      "Ġ17": 3675,
      "Ġst": 3676,
      "xyz": 3677,
      "}&=-\\": 3678,
      "}}}{{\\": 3679,
      "}\\\\&+\\": 3680,
      "}\\\\&=(": 3681,
      "89": 3682,
      "Pro": 3683,
      "\\}(": 3684,
      "kw": 3685,
      "nF": 3686,
      "}{}": 3687,
      "}}_{(": 3688,
      "Ġ+(-": 3689,
      "ĠdR": 3690,
      "},\\;\\;": 3691,
      ")}{{\\": 3692,
      "}^{(+": 3693,
      ")\\,(": 3694,
      "\\{\\|": 3695,
      "}]^{": 3696,
      "_+^\\": 3697,
      "''_{\\": 3698,
      "ĠOp": 3699,
      "101": 3700,
      "}}^{*}": 3701,
      "}}={\\": 3702,
      "ildrel": 3703,
      "buildrel": 3704,
      "}\\;,": 3705,
      "Ġ~~~~~": 3706,
      "Cov": 3707,
      "!}=\\": 3708,
      "NN": 3709,
      "cf": 3710,
      "hslash": 3711,
      "kB": 3712,
      "mspace": 3713,
      "Ġdef": 3714,
      "=\\!\\": 3715,
      "Ġ&(\\": 3716,
      "})[": 3717,
      ")}|^": 3718,
      ")=|\\": 3719,
      "Ġ\\,+\\,": 3720,
      ":=-\\": 3721,
      "com": 3722,
      "}\\,{": 3723,
      "''}\\": 3724,
      ")!}.\\": 3725,
      "\\!-\\!\\": 3726,
      "#(": 3727,
      ":-\\": 3728,
      "Ext": 3729,
      "RF": 3730,
      "gu": 3731,
      "ity": 3732,
      "ld": 3733,
      "uy": 3734,
      "url": 3735,
      "xb": 3736,
      "_{*}(": 3737,
      "Ġ=|": 3738,
      "}^{~": 3739,
      "}}}+": 3740,
      "elli": 3741,
      "Ġ{[": 3742,
      "Ġmn": 3743,
      "}|+": 3744,
      "]\\;": 3745,
      ")|^{-": 3746,
      "^+-": 3747,
      "}]^": 3748,
      "''-\\": 3749,
      ")}}^": 3750,
      "}\\|(": 3751,
      "*}&\\|": 3752,
      "ilb": 3753,
      "AZ": 3754,
      "Ty": 3755,
      "\\}-\\": 3756,
      "\\})=\\": 3757,
      "Ġ}({\\": 3758,
      "ĠdP": 3759,
      "overleftarrow": 3760,
      "Ġpq": 3761,
      "}}((": 3762,
      "})={\\": 3763,
      "'}^{-": 3764,
      "Ae": 3765,
      "DA": 3766,
      "\\}}{": 3767,
      "\\:\\": 3768,
      "csc": 3769,
      "|}\\,": 3770,
      "Ġrank": 3771,
      "Ġpr": 3772,
      "04": 3773,
      "my": 3774,
      "sT": 3775,
      "{)}": 3776,
      "inite": 3777,
      "Ġ&{": 3778,
      "}}}+\\": 3779,
      "Ġix": 3780,
      "tric": 3781,
      ")(-\\": 3782,
      "col": 3783,
      "Ġ,\\;": 3784,
      "Ġ)}(": 3785,
      "Ġdxdy": 3786,
      ")&=(\\": 3787,
      "*}||\\": 3788,
      ")\\;=\\;": 3789,
      "92": 3790,
      "RT": 3791,
      "\\}}{\\": 3792,
      "]\\\\&\\": 3793,
      "iQ": 3794,
      "qf": 3795,
      "{~": 3796,
      "|{": 3797,
      ",\\:": 3798,
      "the": 3799,
      ".\\\\&\\": 3800,
      "Ġ&|": 3801,
      "\\,}\\": 3802,
      ")))=": 3803,
      "^*)^{-": 3804,
      "Ġ}}(": 3805,
      "ĠYM": 3806,
      "_+^{": 3807,
      "_{+},": 3808,
      "~~~~~~": 3809,
      "],\\\\\\": 3810,
      "^{+}}\\": 3811,
      "=&(": 3812,
      "arcsin": 3813,
      "DH": 3814,
      "SM": 3815,
      "YZ": 3816,
      "[|\\": 3817,
      "nE": 3818,
      "~&": 3819,
      "mathelli": 3820,
      "}};\\": 3821,
      "}}}}}": 3822,
      "psis": 3823,
      "}_{,": 3824,
      "\\\\=": 3825,
      "Ġtot": 3826,
      "Ġ)_": 3827,
      ")|+": 3828,
      "Ġ}\\\\": 3829,
      "short": 3830,
      "mathellipsis": 3831,
      ".,\\": 3832,
      ":,": 3833,
      "Jx": 3834,
      "NP": 3835,
      "TQ": 3836,
      "jA": 3837,
      "kX": 3838,
      "when": 3839,
      "{+}": 3840,
      "Ġ\\!\\!\\!": 3841,
      "_{~": 3842,
      "}}]\\": 3843,
      "varPsi": 3844,
      "},(\\": 3845,
      "Ġeach": 3846,
      "^*)^{": 3847,
      ")-{": 3848,
      "_{-}(\\": 3849,
      "*}((": 3850,
      "rrrr": 3851,
      "tions": 3852,
      "')\\,": 3853,
      "*,": 3854,
      "Ch": 3855,
      "MC": 3856,
      "dD": 3857,
      "nA": 3858,
      "wx": 3859,
      "xs": 3860,
      "Ġ&~": 3861,
      "})}+": 3862,
      "Ġdb": 3863,
      "}_+(": 3864,
      ":=\\{\\": 3865,
      "110": 3866,
      "^{+}}": 3867,
      "$},\\\\": 3868,
      "-.": 3869,
      "DB": 3870,
      "\\})=": 3871,
      "]/(": 3872,
      "ble": 3873,
      "iM": 3874,
      "jd": 3875,
      "nw": 3876,
      "vt": 3877,
      "yt": 3878,
      "|_{(": 3879,
      "âĢ": 3880,
      "})})": 3881,
      ")}<\\": 3882,
      "Ġterms": 3883,
      "\\,:\\,": 3884,
      ")({\\": 3885,
      "Ġ=\\;": 3886,
      "Ġ)(\\": 3887,
      "Ġ}\\,\\": 3888,
      "^+=\\": 3889,
      "^+)^": 3890,
      "}]_{\\": 3891,
      "}}_{{\\": 3892,
      "_{++": 3893,
      "}_{+}^{": 3894,
      "'.": 3895,
      "'s": 3896,
      "97": 3897,
      "LT": 3898,
      "SP": 3899,
      "cp": 3900,
      "ww": 3901,
      "_{}\\": 3902,
      "}})}\\": 3903,
      "ĠdZ": 3904,
      "))&": 3905,
      ":=&\\": 3906,
      "}|{\\": 3907,
      "}|=\\": 3908,
      "Ġ\\|_\\": 3909,
      ")]}": 3910,
      "_--": 3911,
      "}},\\\\\\": 3912,
      "}^*)": 3913,
      "'}+\\": 3914,
      ">,\\": 3915,
      "NM": 3916,
      "PT": 3917,
      "aP": 3918,
      "eth": 3919,
      "ent": 3920,
      "nX": 3921,
      "vac": 3922,
      "}...\\": 3923,
      "Ġ\\})": 3924,
      "^{\\,\\": 3925,
      "ĠdF": 3926,
      "Ġac": 3927,
      "Ġ27": 3928,
      "),[": 3929,
      "),\\;\\;": 3930,
      "Ġiz": 3931,
      "Ġnk": 3932,
      "'''": 3933,
      "};\\\\": 3934,
      "^{*}_{\\": 3935,
      "$}\\\\": 3936,
      "$.}": 3937,
      "'^\\": 3938,
      ">-": 3939,
      "@{}": 3940,
      "Lf": 3941,
      "frow": 3942,
      "hv": 3943,
      "pv": 3944,
      "sg": 3945,
      "val": 3946,
      "xleftarrow": 3947,
      "{}^{\\": 3948,
      ")\\}_{": 3949,
      "})}_{": 3950,
      "})}}\\": 3951,
      "root": 3952,
      "Ġ25": 3953,
      "}=\\{(": 3954,
      "Ġ|_": 3955,
      ")})_{": 3956,
      "}',\\": 3957,
      ")|\\\\&\\": 3958,
      ")~=~": 3959,
      "Ġ\\;\\;\\;\\;\\;": 3960,
      "frown": 3961,
      "+,": 3962,
      "81": 3963,
      "SR": 3964,
      "Tw": 3965,
      "dG": 3966,
      "hh": 3967,
      "tk": 3968,
      "|)^{-": 3969,
      "ard": 3970,
      "Ġ-[": 3971,
      "}))^{": 3972,
      ")+|": 3973,
      "}+\\|\\": 3974,
      "Ġwhen": 3975,
      "_{(-\\": 3976,
      "^-_\\": 3977,
      "}$}": 3978,
      "models": 3979,
      "+)": 3980,
      "Bx": 3981,
      "CA": 3982,
      "Jq": 3983,
      "Nu": 3984,
      "]\\\\\\": 3985,
      "bk": 3986,
      "lc": 3987,
      "red": 3988,
      "|}=": 3989,
      ")\\}=": 3990,
      "}})(\\": 3991,
      "dast": 3992,
      ")=\\|": 3993,
      "),~\\": 3994,
      "})\\|": 3995,
      "]\\,\\": 3996,
      "}]-": 3997,
      "}&&": 3998,
      "Ġconstant": 3999,
      "circledast": 4000,
      ")_{-": 4001,
      "SD": 4002,
      "SNR": 4003,
      "TZ": 4004,
      "ant": 4005,
      "dN": 4006,
      "xh": 4007,
      "|}}{": 4008,
      "raise": 4009,
      "}_{+}": 4010,
      "}-|\\": 4011,
      "Ġcd": 4012,
      "\\|,": 4013,
      "Ġres": 4014,
      "}\\,=\\,\\": 4015,
      ")|+|\\": 4016,
      ",\\\\-": 4017,
      "_{+})": 4018,
      ")\\\\&-\\": 4019,
      "}_+^": 4020,
      "'}}{": 4021,
      "))},": 4022,
      "/{": 4023,
      "63": 4024,
      "DT": 4025,
      "JK": 4026,
      "ML": 4027,
      "Mf": 4028,
      "\\}\\\\&\\": 4029,
      "lp": 4030,
      "qj": 4031,
      "ug": 4032,
      ")\\}=\\": 4033,
      "}}))": 4034,
      "\\|^{\\": 4035,
      "ĠHilb": 4036,
      "}|^{-": 4037,
      "Ġ\\{(\\": 4038,
      ")].": 4039,
      "}\\!-\\!": 4040,
      "âĢĲ": 4041,
      "'}-\\": 4042,
      "){{\\": 4043,
      "Az": 4044,
      "XZ": 4045,
      "]\\\\&": 4046,
      "xa": 4047,
      "Ġ\\;\\;\\;\\;\\;\\;": 4048,
      "}}}_": 4049,
      "^{-|\\": 4050,
      "\\{[": 4051,
      "}|,\\": 4052,
      "_+}{": 4053,
      "^-=": 4054,
      ")})^{\\": 4055,
      "}&:=": 4056,
      "\\;=\\;": 4057,
      "}}}{{": 4058,
      "}^+(\\": 4059,
      "arpoon": 4060,
      "'&=": 4061,
      "CH": 4062,
      "Hess": 4063,
      "Kf": 4064,
      "NL": 4065,
      "RL": 4066,
      "ha": 4067,
      "iC": 4068,
      "idx": 4069,
      "jV": 4070,
      "kc": 4071,
      "mL": 4072,
      "orm": 4073,
      "pf": 4074,
      "ry": 4075,
      "Ġ([\\": 4076,
      "Ġ-(-": 4077,
      "});\\": 4078,
      ")};\\": 4079,
      "Ġexists": 4080,
      "^*)-": 4081,
      "Ġgh": 4082,
      "\\|,\\": 4083,
      ")&=&\\": 4084,
      "_{+}(\\": 4085,
      "^{*},": 4086,
      "Ġ64": 4087,
      ",&&": 4088,
      ")\\|_\\": 4089,
      "+...+": 4090,
      "85": 4091,
      "NT": 4092,
      "\\}^{(": 4093,
      "jg": 4094,
      "lq": 4095,
      "nK": 4096,
      "pw": 4097,
      "pz": 4098,
      "rh": 4099,
      "sv": 4100,
      "uph": 4101,
      "{=": 4102,
      "|[": 4103,
      "~=~\\": 4104,
      "}^{*}(\\": 4105,
      "Ġ+\\|": 4106,
      "Ġ\\\\\\\\": 4107,
      "Ġie": 4108,
      "\\,[": 4109,
      "Ġse": 4110,
      "sep": 4111,
      "}|-": 4112,
      "}[-": 4113,
      "{-}\\": 4114,
      "):=&\\": 4115,
      "134": 4116,
      "):\\,": 4117,
      "smallskip": 4118,
      "rule": 4119,
      "upharpoon": 4120,
      "'^{(": 4121,
      "))}=": 4122,
      "^*}{\\": 4123,
      "lx": 4124,
      "~(": 4125,
      ".\\,": 4126,
      "}}}.": 4127,
      "}}+(": 4128,
      "ĠdM": 4129,
      "ĠdY": 4130,
      "}=-(": 4131,
      "),\\,\\": 4132,
      "Ġgrad": 4133,
      "Ġ.\\\\\\": 4134,
      "ĠGL": 4135,
      "})=(-": 4136,
      ")\\\\&=-\\": 4137,
      "&&&&": 4138,
      "Ġ\\#\\": 4139,
      "{}{}{": 4140,
      "'>": 4141,
      "')^{\\": 4142,
      "69": 4143,
      "HP": 4144,
      "RR": 4145,
      "ag": 4146,
      "iK": 4147,
      "xd": 4148,
      "^{^{\\": 4149,
      "_{\\;\\;": 4150,
      "}})+\\": 4151,
      ")^{{\\": 4152,
      "))|^": 4153,
      "ĠHom": 4154,
      "~~.\\": 4155,
      ")]-": 4156,
      "}[|": 4157,
      "_{+}-": 4158,
      "=-{\\": 4159,
      "Ġ&=\\{": 4160,
      ")}}{{\\": 4161,
      "upharpoonright": 4162,
      "!^": 4163,
      "))},\\": 4164,
      "200": 4165,
      "84": 4166,
      "JY": 4167,
      "Mr": 4168,
      "\\}},": 4169,
      "ation": 4170,
      "mall": 4171,
      "tS": 4172,
      "tc": 4173,
      "xT": 4174,
      "zv": 4175,
      "}\\}=\\": 4176,
      "}}}^{\\": 4177,
      "+\\;": 4178,
      "Ġun": 4179,
      "}}\\!\\": 4180,
      "eqn": 4181,
      "Ġ{}^{\\": 4182,
      "122": 4183,
      "*}&[": 4184,
      "}&{": 4185,
      "}'=\\": 4186,
      "^{+}_": 4187,
      "^{+},": 4188,
      "234": 4189,
      "{[}": 4190,
      "|-|\\": 4191,
      ",...\\": 4192,
      "CB": 4193,
      "][\\": 4194,
      "free": 4195,
      "lg": 4196,
      "|}(\\": 4197,
      "}}})": 4198,
      ")=[\\": 4199,
      "ape": 4200,
      "{((": 4201,
      "}^{-(": 4202,
      "^-,\\": 4203,
      "^-)\\": 4204,
      "]=[\\": 4205,
      "boxed": 4206,
      ",-}(": 4207,
      "}^+}": 4208,
      "ccccccc": 4209,
      "$}_{": 4210,
      "-})": 4211,
      "211": 4212,
      "95": 4213,
      ";(\\": 4214,
      "By": 4215,
      "Cx": 4216,
      "GM": 4217,
      "KN": 4218,
      "TD": 4219,
      "Te": 4220,
      "VP": 4221,
      "aX": 4222,
      "bi": 4223,
      "bl": 4224,
      "dC": 4225,
      "iW": 4226,
      "jc": 4227,
      "kP": 4228,
      "kij": 4229,
      "|^{-(": 4230,
      "Ġsupp": 4231,
      ")\\!\\": 4232,
      "Ġ+[": 4233,
      "Ġ\\\\+": 4234,
      "imize": 4235,
      "Ġnx": 4236,
      "}}{(-": 4237,
      ")}{[": 4238,
      ")\\\\(": 4239,
      ")|^\\": 4240,
      "}].": 4241,
      "}]+\\": 4242,
      "}]+[": 4243,
      "cent": 4244,
      "'',\\": 4245,
      "Ġ30": 4246,
      "disc": 4247,
      "108": 4248,
      ")!!": 4249,
      "}^*,": 4250,
      "^{+}_{\\": 4251,
      "^{'}_{": 4252,
      "'))\\": 4253,
      "({{\\": 4254,
      "+}^{\\": 4255,
      "Nf": 4256,
      "Nx": 4257,
      "YX": 4258,
      "\\}\\,,\\": 4259,
      "]^{(": 4260,
      "];\\": 4261,
      "aD": 4262,
      "ah": 4263,
      "jX": 4264,
      "nL": 4265,
      "sma": 4266,
      "{,}\\": 4267,
      "Ġ&,": 4268,
      "})^*\\": 4269,
      "leqq": 4270,
      "))&\\": 4271,
      "Ġ-\\,": 4272,
      "}}({": 4273,
      "_+=\\": 4274,
      ")]}\\": 4275,
      "\\}\\\\\\": 4276,
      ")!}{\\": 4277,
      "),\\\\(": 4278,
      "\\\\&-": 4279,
      ")}+\\|": 4280,
      "Ġ\\!+\\!": 4281,
      "mber": 4282,
      "'}}(": 4283,
      ",$": 4284,
      "Con": 4285,
      "PA": 4286,
      "Tg": 4287,
      "kC": 4288,
      "rw": 4289,
      "xF": 4290,
      "|)^{\\": 4291,
      "~.": 4292,
      "Ġ'(": 4293,
      "Ġbound": 4294,
      "Ġ\\,\\,\\,\\,\\": 4295,
      "(\\!": 4296,
      ")\\}.": 4297,
      "Ġ\\,(\\": 4298,
      "Ġ}[": 4299,
      ":=-": 4300,
      ")\\,=\\,\\": 4301,
      "^++": 4302,
      ")]+\\": 4303,
      "Ġ~{\\": 4304,
      "})=\\{": 4305,
      "):=(\\": 4306,
      ");\\\\": 4307,
      "\\!\\!\\!\\": 4308,
      "!\\,": 4309,
      ",*}": 4310,
      "Ju": 4311,
      "TS": 4312,
      "]),": 4313,
      "gl": 4314,
      "mR": 4315,
      "of": 4316,
      "qb": 4317,
      "vs": 4318,
      "|^{(": 4319,
      "Ġig": 4320,
      "Ġ})=\\": 4321,
      "Ġ\\},\\\\": 4322,
      ",\\;\\;\\": 4323,
      "tisf": 4324,
      "})<": 4325,
      "Ġ}&": 4326,
      "Ġjk": 4327,
      ":=\\,\\": 4328,
      "}[{\\": 4329,
      "})=&": 4330,
      "Ġ~,~": 4331,
      "}{||": 4332,
      "}'}\\": 4333,
      "))=(\\": 4334,
      "}:=(": 4335,
      "':": 4336,
      ":&": 4337,
      "Aut": 4338,
      "\\!\\!\\!": 4339,
      "eV": 4340,
      "jw": 4341,
      "lcr": 4342,
      "trace": 4343,
      "yr": 4344,
      "Ġ''": 4345,
      "Ġare": 4346,
      "erf": 4347,
      "Ġ\\\\|": 4348,
      "}_-\\": 4349,
      "Ġ28": 4350,
      "}+[": 4351,
      "~~,\\": 4352,
      "cov": 4353,
      "Ġ)-\\": 4354,
      "}]=-": 4355,
      "^-.\\": 4356,
      "Ġ\\\\&=(": 4357,
      "}~=~": 4358,
      "}_{-}": 4359,
      "Ġ\\#\\{": 4360,
      ")...": 4361,
      ")}^*": 4362,
      "Hg": 4363,
      "\\}^{-": 4364,
      "sA": 4365,
      "}~~~": 4366,
      "^{}_": 4367,
      "}\\;\\;\\;": 4368,
      "}{[\\": 4369,
      "}}).": 4370,
      "})}}{": 4371,
      "see": 4372,
      "Ġ_{(\\": 4373,
      ":=\\,": 4374,
      "Ġ\\{|": 4375,
      "}][": 4376,
      ")]_{\\": 4377,
      "^-=\\": 4378,
      "((-\\": 4379,
      ")})-": 4380,
      "Ġ~,": 4381,
      ")},\\\\\\": 4382,
      ")|\\\\": 4383,
      "^{*}}\\": 4384,
      "!)^{": 4385,
      "').": 4386,
      "jT": 4387,
      "pF": 4388,
      "tD": 4389,
      "xM": 4390,
      "yv": 4391,
      "|),\\": 4392,
      "Ġ+|\\": 4393,
      ")):": 4394,
      "Ġsa": 4395,
      "coh": 4396,
      "}|,": 4397,
      ")|+\\": 4398,
      ")|<\\": 4399,
      "_{-(": 4400,
      "^+}(": 4401,
      "*}&|": 4402,
      "Ġ$|": 4403,
      "}&-": 4404,
      "}}=(\\": 4405,
      ")}={\\": 4406,
      "\\\\&&": 4407,
      "))=-\\": 4408,
      "144": 4409,
      ")=-{": 4410,
      ")\\;,": 4411,
      "$}.": 4412,
      "<(": 4413,
      "BE": 4414,
      "PB": 4415,
      "Sym": 4416,
      "]}+\\": 4417,
      "iZ": 4418,
      "mv": 4419,
      "mit": 4420,
      "tm": 4421,
      "Ġ\\&": 4422,
      "_{~\\": 4423,
      "local": 4424,
      "}}\\{": 4425,
      "Ġnot": 4426,
      "Ġyx": 4427,
      "Ġcom": 4428,
      "}|+|": 4429,
      "Ġ)_{\\": 4430,
      ",\\,{\\": 4431,
      "Ġ^{*}": 4432,
      "'\\|^": 4433,
      ")})}": 4434,
      "_-=\\": 4435,
      "\\\\&&&": 4436,
      "xxxx": 4437,
      "))^*": 4438,
      "Ġ;\\\\": 4439,
      "$,}\\\\": 4440,
      "]}}({": 4441,
      "'[": 4442,
      "Bh": 4443,
      "TL": 4444,
      "mg": 4445,
      "^{=": 4446,
      "^{'}\\": 4447,
      ")\\{": 4448,
      "Ġ&\\{": 4449,
      "},~~~": 4450,
      "Ġ26": 4451,
      "Ġext": 4452,
      "ĠAX": 4453,
      ")|>": 4454,
      "\\};\\": 4455,
      "))\\,\\": 4456,
      "_{+}}\\": 4457,
      "132": 4458,
      "^{++}": 4459,
      "240": 4460,
      ")\\\\&-": 4461,
      "Ġ:=\\,": 4462,
      "}_+,\\": 4463,
      ")=&(": 4464,
      "colsep": 4465,
      "))}=\\": 4466,
      ",(-": 4467,
      "AV": 4468,
      "At": 4469,
      "DN": 4470,
      "cg": 4471,
      "yH": 4472,
      "|~\\": 4473,
      "_{;": 4474,
      "}\\}}\\": 4475,
      ",\\{\\": 4476,
      "_{\\;": 4477,
      "}}}-\\": 4478,
      "})'(": 4479,
      "}}{=}\\": 4480,
      "}|+\\": 4481,
      "\\}:": 4482,
      "192": 4483,
      "Prod": 4484,
      "')}{\\": 4485,
      "={{": 4486,
      "CL": 4487,
      "FP": 4488,
      "hD": 4489,
      "pb": 4490,
      "xB": 4491,
      "|),": 4492,
      "Ġho": 4493,
      "Ġ],": 4494,
      "}^{|\\": 4495,
      "})].\\": 4496,
      "^{-}_": 4497,
      "}=[\\": 4498,
      "ase": 4499,
      "Ġ}|\\": 4500,
      "Ġct": 4501,
      "\\|}\\": 4502,
      ")}}.": 4503,
      "_-)\\": 4504,
      "}\\|_\\": 4505,
      "}~,": 4506,
      "}\\!+\\!": 4507,
      "SINR": 4508,
      "'}^\\": 4509,
      "-~": 4510,
      "94": 4511,
      "GF": 4512,
      "PV": 4513,
      "\\>": 4514,
      "dJ": 4515,
      "nB": 4516,
      "osc": 4517,
      "pH": 4518,
      "rv": 4519,
      "um": 4520,
      "Ġ)^\\": 4521,
      "Ġ&.\\": 4522,
      "ero": 4523,
      ")}<": 4524,
      ")}+(": 4525,
      "Ġ\\\\=\\": 4526,
      "\\\\(\\": 4527,
      "}^{\\#": 4528,
      "arraycolsep": 4529,
      "Ġ{|\\": 4530,
      "^*|": 4531,
      "\\|=\\|": 4532,
      "}_{\\{-": 4533,
      "Ġwe": 4534,
      "ĠNS": 4535,
      "_+.\\": 4536,
      "^-}{": 4537,
      ")}}}\\": 4538,
      "_-+": 4539,
      "}}={": 4540,
      "}),(": 4541,
      "=&-\\": 4542,
      "}:\\,": 4543,
      "Ġ&&&": 4544,
      ")}}{{": 4545,
      "'&": 4546,
      "BT": 4547,
      "IV": 4548,
      "])+": 4549,
      "bel": 4550,
      "fu": 4551,
      "rN": 4552,
      "^{}(": 4553,
      ")}~": 4554,
      ")}]\\": 4555,
      "varOmega": 4556,
      "))/": 4557,
      "(-{": 4558,
      ")|-": 4559,
      "*}&|\\": 4560,
      "}&-\\": 4561,
      "001": 4562,
      "mnp": 4563,
      "|\\\\&=": 4564,
      "!}}\\": 4565,
      "'^{\\": 4566,
      "+[\\": 4567,
      "DP": 4568,
      "GE": 4569,
      "IR": 4570,
      "Je": 4571,
      "LL": 4572,
      "TR": 4573,
      "])^": 4574,
      "],\\,": 4575,
      "fd": 4576,
      "iam": 4577,
      "pA": 4578,
      "xD": 4579,
      "yl": 4580,
      "Ġ}^{-": 4581,
      "Ġ}}=": 4582,
      "_{\\;\\;\\": 4583,
      "}_{|\\": 4584,
      "ĠdU": 4585,
      ")=+\\": 4586,
      "),\\;\\;\\;": 4587,
      "))+(": 4588,
      "Ġ{(-": 4589,
      "Ġ|=": 4590,
      "})\\}": 4591,
      "Ġ,{\\": 4592,
      "(-{\\": 4593,
      "_{-},": 4594,
      "Ġ40": 4595,
      "ren": 4596,
      "*}&(\\": 4597,
      "102": 4598,
      ")}}_{": 4599,
      "_-=": 4600,
      "_-^{-": 4601,
      "ipx": 4602,
      ")}=(\\": 4603,
      "\\\\&&\\": 4604,
      "^{*})": 4605,
      "([-": 4606,
      "ence": 4607,
      "}_{+}\\": 4608,
      "etch": 4609,
      "~~~~~~~~~~~~~~~~~~~~~~~~~~~~~~~~": 4610,
      "$}(": 4611,
      ")''": 4612,
      "*(\\": 4613,
      ".)\\": 4614,
      "Aw": 4615,
      "DD": 4616,
      "End": 4617,
      "FS": 4618,
      "Nd": 4619,
      "TH": 4620,
      "UE": 4621,
      "Xu": 4622,
      "\\}},\\": 4623,
      "tT": 4624,
      "tdt": 4625,
      "vp": 4626,
      "|&": 4627,
      ")\\|^{": 4628,
      "ĠdE": 4629,
      "|\\!": 4630,
      "}}\\;\\": 4631,
      "\\,+\\,": 4632,
      "Ġper": 4633,
      "Ġbx": 4634,
      "Ġ[{": 4635,
      "Ġ\\|(\\": 4636,
      ")}{\\|": 4637,
      "_{-})": 4638,
      "|_{[": 4639,
      "Ġ\\\\&&": 4640,
      ")})}\\": 4641,
      "\\;.": 4642,
      "))=-": 4643,
      "tter": 4644,
      "Ġ\\;\\;.\\": 4645,
      "Ġ~~~\\": 4646,
      "stretch": 4647,
      "'}}{\\": 4648,
      "011": 4649,
      "74": 4650,
      "Aa": 4651,
      "FG": 4652,
      "Large": 4653,
      "SC": 4654,
      "\\}\\\\&": 4655,
      "]}+": 4656,
      "aT": 4657,
      "rll": 4658,
      "vline": 4659,
      "yf": 4660,
      "Ġqu": 4661,
      "Ġ\\:\\:\\:": 4662,
      "}\\}.": 4663,
      ",\\|": 4664,
      "}})}{": 4665,
      "suit": 4666,
      "})).": 4667,
      ")=:\\": 4668,
      ")=\\{(": 4669,
      "\\,+\\,\\": 4670,
      "))}(": 4671,
      "Ġ}}^{\\": 4672,
      "\\|}^": 4673,
      "}\\,|\\,": 4674,
      ")||^": 4675,
      "}]^{-": 4676,
      ":\\!": 4677,
      "*}|{\\": 4678,
      "135": 4679,
      ")}(\\{": 4680,
      "(||": 4681,
      "old": 4682,
      "IJK": 4683,
      "'/\\": 4684,
      ")*\\": 4685,
      ",+}": 4686,
      "61": 4687,
      "AU": 4688,
      "AdS": 4689,
      "Dp": 4690,
      "Me": 4691,
      "Td": 4692,
      "aA": 4693,
      "ht": 4694,
      "nN": 4695,
      "{=}": 4696,
      "|)}": 4697,
      "Ġ}=-\\": 4698,
      "Ġ\\;\\;\\;\\;\\": 4699,
      "_{}^{": 4700,
      "Ġ&|\\": 4701,
      "Ġ&~\\": 4702,
      "})&=(": 4703,
      "|\\\\\\": 4704,
      "}(\\{\\": 4705,
      "Ġyz": 4706,
      "[\\{": 4707,
      "Ġsp": 4708,
      "'(-": 4709,
      "_{--": 4710,
      ")][": 4711,
      ")]}{": 4712,
      ")]\\\\": 4713,
      "*}&{\\": 4714,
      ")}).": 4715,
      "_*^{-": 4716,
      ")},&": 4717,
      "166": 4718,
      "}}-{\\": 4719,
      "ABCD": 4720,
      "ixed": 4721,
      ")^{(-": 4722,
      "}]=[": 4723,
      "$;}": 4724,
      "'<": 4725,
      "'|^{": 4726,
      ")*}": 4727,
      "))\\,.\\": 4728,
      ",*}\\": 4729,
      "-,": 4730,
      "010": 4731,
      "><": 4732,
      "BV": 4733,
      "DR": 4734,
      "Ex": 4735,
      "LM": 4736,
      "]})\\": 4737,
      "cv": 4738,
      "hn": 4739,
      "yw": 4740,
      "zI": 4741,
      "{}\\,": 4742,
      "|}+": 4743,
      "}!\\": 4744,
      "Ġpar": 4745,
      "_{+\\": 4746,
      "}\\\\{\\": 4747,
      "}{{{\\": 4748,
      "})}-\\": 4749,
      "Ġfg": 4750,
      "Ġnp": 4751,
      "^*)}": 4752,
      "ĠCe": 4753,
      "ĠLu": 4754,
      "comp": 4755,
      "setlength": 4756,
      "}|<": 4757,
      ")|)": 4758,
      ")||\\": 4759,
      "\\{\\,": 4760,
      "\\{\\{": 4761,
      ")_{,": 4762,
      "1111": 4763,
      "Ġout": 4764,
      ")}={": 4765,
      "~~~~~\\": 4766,
      ")&=\\{": 4767,
      "*}|(": 4768,
      "Ġ=&\\,": 4769,
      "Ġ\\!-\\!": 4770,
      "!}}": 4771,
      ")[(": 4772,
      "-)": 4773,
      "212": 4774,
      "SE": 4775,
      "TN": 4776,
      "\\;\\;\\;": 4777,
      "\\}\\\\&=": 4778,
      "]]\\": 4779,
      "_>": 4780,
      "_*}\\": 4781,
      "ew": 4782,
      "gA": 4783,
      "gv": 4784,
      "mN": 4785,
      "pj": 4786,
      "xL": 4787,
      "Ġ\\:\\:": 4788,
      ",\\;\\;\\;\\": 4789,
      "}^{'}(": 4790,
      "}}))\\": 4791,
      "}):\\": 4792,
      "cdotp": 4793,
      "ĠdH": 4794,
      "Ġdc": 4795,
      "},\\{": 4796,
      "arraystretch": 4797,
      "\\,;\\": 4798,
      "Ġkx": 4799,
      "Ġ}}{{\\": 4800,
      "\\||": 4801,
      "\\|_*": 4802,
      ")-|": 4803,
      "ĠDF": 4804,
      "1212": 4805,
      "}|)": 4806,
      "}\\\\(": 4807,
      "_+}(": 4808,
      ")_{+": 4809,
      ")_{|": 4810,
      "Ġ\\\\&-\\": 4811,
      "^-)^": 4812,
      "_-^{\\": 4813,
      "_-^\\": 4814,
      "_*^{": 4815,
      "Ġ~(": 4816,
      "\\|\\|": 4817,
      "iii": 4818,
      "Ġind": 4819,
      "}^-_{": 4820,
      "ment": 4821,
      "'}\\,": 4822,
      ">_{\\": 4823,
      "CT": 4824,
      "Hu": 4825,
      "Pl": 4826,
      "Ra": 4827,
      "UT": 4828,
      "\\}}}": 4829,
      "aN": 4830,
      "cor": 4831,
      "eA": 4832,
      "tU": 4833,
      "Ġop": 4834,
      "Ġ}}=\\": 4835,
      "ĠDet": 4836,
      "}}}-": 4837,
      "}}}}{": 4838,
      "})~": 4839,
      "loop": 4840,
      "}_{[\\": 4841,
      "Ġdl": 4842,
      "Ġ\\,,\\,": 4843,
      "Ġiy": 4844,
      "))}{(": 4845,
      "))-(": 4846,
      "^*),\\": 4847,
      "Ġ&=(\\": 4848,
      "&=[": 4849,
      "Ġba": 4850,
      "ĠCT": 4851,
      "\\|(\\": 4852,
      "}_{\\{\\": 4853,
      "Ġwt": 4854,
      "}\\,|": 4855,
      "}|}{\\": 4856,
      "]\\}\\": 4857,
      "sing": 4858,
      ")})}{\\": 4859,
      "\\},\\\\&": 4860,
      "160": 4861,
      "psmall": 4862,
      "arrowvert": 4863,
      "psmallmatrix": 4864,
      "':=": 4865,
      "'}|": 4866,
      "AR": 4867,
      "BL": 4868,
      "KM": 4869,
      "Nr": 4870,
      "Yu": 4871,
      "gd": 4872,
      "nS": 4873,
      "put": 4874,
      "yq": 4875,
      "|}|": 4876,
      "Ġ}}.\\": 4877,
      "Ġ}{|": 4878,
      "Ġphys": 4879,
      "_{}(\\": 4880,
      "inde": 4881,
      "}{@{}": 4882,
      "}})-\\": 4883,
      "}_{*}": 4884,
      "},[\\": 4885,
      "Ġ(\\,": 4886,
      "}-(-": 4887,
      "^*\\|^": 4888,
      "Ġkj": 4889,
      "Ġcp": 4890,
      "ĠTx": 4891,
      "\\{{": 4892,
      ")-(-": 4893,
      "ĠRes": 4894,
      "ĠSym": 4895,
      "dxds": 4896,
      ")]}{\\": 4897,
      "})^{*}": 4898,
      "}')\\": 4899,
      "!\\!\\!\\": 4900,
      "\\!+\\!\\": 4901,
      "BMO": 4902,
      "-[\\": 4903,
      "321": 4904,
      "87": 4905,
      "=_": 4906,
      "=+\\": 4907,
      "Ce": 4908,
      "bg": 4909,
      "iU": 4910,
      "jR": 4911,
      "qw": 4912,
      "vf": 4913,
      "{+}\\": 4914,
      "Ġ}(-": 4915,
      "Ġ\\!\\!\\!\\!\\": 4916,
      "tag": 4917,
      "Ġ=\\\\": 4918,
      "such": 4919,
      ")})\\,": 4920,
      ")}]_": 4921,
      "bigm": 4922,
      "Ġ19": 4923,
      "Ġia": 4924,
      "\\,|\\": 4925,
      "Ġ{}\\": 4926,
      "ĠPf": 4927,
      "{({\\": 4928,
      "Ġ}\\,\\,": 4929,
      "}])\\": 4930,
      "^-}(": 4931,
      ",-}": 4932,
      "{{{{\\": 4933,
      "}'=": 4934,
      "):&=\\": 4935,
      "})}{=}": 4936,
      "}^+,": 4937,
      "triction": 4938,
      "'\\}": 4939,
      "BG": 4940,
      "^*}(\\": 4941,
      "hs": 4942,
      "mM": 4943,
      "nC": 4944,
      "nD": 4945,
      "qT": 4946,
      "tP": 4947,
      "{)}\\": 4948,
      ")\\>": 4949,
      ")\\;\\;": 4950,
      "}}~\\": 4951,
      "})|^{": 4952,
      "}{\\,": 4953,
      "_\\#": 4954,
      "ĠdL": 4955,
      "}}\\|_{": 4956,
      "}}\\;.\\": 4957,
      ")=\\\\": 4958,
      "),\\;\\": 4959,
      "ĠAv": 4960,
      "))),\\": 4961,
      "))]\\": 4962,
      "Ġvac": 4963,
      "Ġpo": 4964,
      ":=&": 4965,
      "ĠCl": 4966,
      "Ġso": 4967,
      "ijl": 4968,
      "{(|": 4969,
      ":=\\{(": 4970,
      ",\\\\-\\": 4971,
      "_{-}-": 4972,
      "\\};": 4973,
      "''=\\": 4974,
      ")_*\\": 4975,
      "Ġ^{+": 4976,
      ")}}+": 4977,
      "_*,\\": 4978,
      "_*)\\": 4979,
      "}},&": 4980,
      "{||": 4981,
      "Ġ\\\\&=(\\": 4982,
      "}\\;.": 4983,
      "})+(\\": 4984,
      "&{": 4985,
      "'_{(": 4986,
      "@{": 4987,
      "CN": 4988,
      "Cl": 4989,
      "Gr": 4990,
      "Nz": 4991,
      "WF": 4992,
      "]/\\": 4993,
      "non": 4994,
      "we": 4995,
      "xX": 4996,
      "zu": 4997,
      "Ġ)},\\": 4998,
      "Ġ\\,\\,\\,\\": 4999,
      "mul": 5000,
      ")}}^{": 5001,
      ")}}\\,": 5002,
      "ĠdT": 5003,
      "Ġdn": 5004,
      "}_-(": 5005,
      "ĠAe": 5006,
      "Ġ{}^\\": 5007,
      "^*))": 5008,
      "ĠSL": 5009,
      "}\\,,\\,": 5010,
      "]\\;.\\": 5011,
      ",\\\\(\\": 5012,
      "\\|\\\\&\\": 5013,
      "^{+}(\\": 5014,
      "!\\!\\!\\!": 5015,
      "}:=\\{\\": 5016,
      "dvol": 5017,
      "restriction": 5018,
      "'\\|": 5019,
      "'})=": 5020,
      "626": 5021,
      "AT": 5022,
      "DL": 5023,
      "Eu": 5024,
      "KK": 5025,
      "PR": 5026,
      "Sf": 5027,
      "\\}}=": 5028,
      "bxz": 5029,
      "zL": 5030,
      "{+": 5031,
      "|}+\\": 5032,
      "Ġra": 5033,
      "Ġ})=": 5034,
      "Ġ'_": 5035,
      "{\\#": 5036,
      "Ġ=\\|": 5037,
      "Ġ&\\|": 5038,
      "Ġ&,&": 5039,
      "}}|_{": 5040,
      "label": 5041,
      "}}\\!": 5042,
      ")))=\\": 5043,
      "uplus": 5044,
      "+(-\\": 5045,
      ")})+\\": 5046,
      "}^*=": 5047,
      "}^*.\\": 5048,
      ")&-": 5049,
      "triangledown": 5050,
      "Ġ\\{\\,": 5051,
      "1728": 5052,
      "_!{\\": 5053,
      "Ġsatisf": 5054,
      "!}\\,": 5055,
      "';\\": 5056,
      "'}}}": 5057,
      "')=(": 5058,
      "09": 5059,
      ":}": 5060,
      "DC": 5061,
      "Ta": 5062,
      "UL": 5063,
      "XJ": 5064,
      "]}^{\\": 5065,
      "can": 5066,
      "nQ": 5067,
      "rb": 5068,
      "rdr": 5069,
      "|:": 5070,
      "ary": 5071,
      ")\\;\\;\\": 5072,
      "_{\\|\\": 5073,
      "-\\|\\": 5074,
      "})'": 5075,
      "ĠdK": 5076,
      "null": 5077,
      "Ġ{}^{": 5078,
      "ĠCP": 5079,
      "ĠTu": 5080,
      "ĠDg": 5081,
      "}||_{\\": 5082,
      "Ġ&\\;\\;": 5083,
      "}]}(": 5084,
      "))\\;": 5085,
      ")&=(-": 5086,
      "}{|{\\": 5087,
      "_{+-": 5088,
      "*}[(": 5089,
      "Ġ]_{": 5090,
      "Ġ]=\\": 5091,
      "}\\;=\\;": 5092,
      "\\}}-\\": 5093,
      "})-(\\": 5094,
      "_{{}_": 5095,
      "567": 5096,
      "cyc": 5097,
      "&(\\": 5098,
      "']\\": 5099,
      "Be": 5100,
      "EG": 5101,
      "LP": 5102,
      "Na": 5103,
      "PP": 5104,
      "SH": 5105,
      "ep": 5106,
      "fv": 5107,
      "kL": 5108,
      "kip": 5109,
      "tZ": 5110,
      "xA": 5111,
      "xP": 5112,
      "{=}\\": 5113,
      "|}^{": 5114,
      "|&=": 5115,
      "}!}": 5116,
      "}!}\\": 5117,
      "Ġ*}": 5118,
      "Ġ)\\\\": 5119,
      "Ġ}},\\": 5120,
      "Ġthere": 5121,
      "_{},": 5122,
      "*}-(": 5123,
      "}\\:\\": 5124,
      "}{{{": 5125,
      "Ġ&\\\\\\": 5126,
      "})/\\": 5127,
      ")}-(": 5128,
      ")^-": 5129,
      "},\\,\\,\\,": 5130,
      "),-": 5131,
      "}=:\\": 5132,
      "adj": 5133,
      "Ġcurl": 5134,
      "Ġsing": 5135,
      "})\\}\\": 5136,
      "ĠPr": 5137,
      "ĠKer": 5138,
      "_+)\\": 5139,
      "Ġ34": 5140,
      "}}^{+": 5141,
      "{|}": 5142,
      ")\\\\&=-": 5143,
      "}~{\\": 5144,
      ",\\,\\,\\,\\,\\": 5145,
      "}^{*}=\\": 5146,
      "Ġ\\#(": 5147,
      ")|=|\\": 5148,
      "key": 5149,
      "most": 5150,
      "smash": 5151,
      "+_": 5152,
      "86": 5153,
      "LR": 5154,
      "Ng": 5155,
      "TY": 5156,
      "ZZ": 5157,
      "lb": 5158,
      "nM": 5159,
      "rot": 5160,
      "Ġ}},": 5161,
      "almost": 5162,
      "^{<": 5163,
      "main": 5164,
      "lement": 5165,
      "{\\{\\": 5166,
      ")\\}\\\\": 5167,
      "Ġ&.": 5168,
      "sure": 5169,
      "})}_": 5170,
      "})}\\,": 5171,
      "}))\\\\": 5172,
      "^{-},": 5173,
      "),~~~": 5174,
      "),\\,\\,\\,": 5175,
      "Ġ||^": 5176,
      "Ġmm": 5177,
      "}|=(": 5178,
      "_++\\": 5179,
      ")](\\": 5180,
      "1000": 5181,
      ")})(\\": 5182,
      ")})-\\": 5183,
      "{|{\\": 5184,
      "}^*_{\\": 5185,
      "^*}_{": 5186,
      ")^*.\\": 5187,
      ",\\,\\,\\,\\,\\,\\": 5188,
      "180": 5189,
      "else": 5190,
      "'&=\\": 5191,
      "'|^{\\": 5192,
      "+)}": 5193,
      ",.": 5194,
      "83": 5195,
      "Div": 5196,
      "FB": 5197,
      "Ne": 5198,
      "Rx": 5199,
      "Sh": 5200,
      "Vf": 5201,
      "_<": 5202,
      "_*}(": 5203,
      "bh": 5204,
      "jik": 5205,
      "mw": 5206,
      "pB": 5207,
      "tC": 5208,
      "tY": 5209,
      "tj": 5210,
      "|)(": 5211,
      "|/\\": 5212,
      "|(|": 5213,
      "Ġ\\}|": 5214,
      "*}\\,": 5215,
      "Ġ&[": 5216,
      ")}}^{\\": 5217,
      "}_{(-": 5218,
      "},\\;\\;\\;": 5219,
      "Ġ21": 5220,
      "}+...+": 5221,
      "^*.": 5222,
      "Ġpa": 5223,
      "\\|+\\|": 5224,
      "Ġstr": 5225,
      "})\\}.\\": 5226,
      "ĠEf": 5227,
      "Ġ=\\{\\": 5228,
      "Ġ\\||": 5229,
      "_{-},\\": 5230,
      "]=&": 5231,
      "222": 5232,
      ")\\;.": 5233,
      ")~,": 5234,
      "Ġonly": 5235,
      "]\\\\=&": 5236,
      "'|_{": 5237,
      "(+\\": 5238,
      "-},": 5239,
      "DM": 5240,
      "Rm": 5241,
      "]^{-\\": 5242,
      "]}.": 5243,
      "_*}{": 5244,
      "fi": 5245,
      "kM": 5246,
      "tG": 5247,
      "unc": 5248,
      "{_{": 5249,
      "eger": 5250,
      "lem": 5251,
      "_{\\!\\": 5252,
      "}})_{\\": 5253,
      "}}~.\\": 5254,
      "})}\\\\": 5255,
      ")){\\": 5256,
      "Ġ{}&": 5257,
      "^*;": 5258,
      "Ġprob": 5259,
      "Ġbe": 5260,
      "}\\,[": 5261,
      "Ġ_{-\\": 5262,
      "]\\}": 5263,
      "Ġ\\;{\\": 5264,
      ")\\,:\\,": 5265,
      "upp": 5266,
      "}{(|": 5267,
      "_-}(": 5268,
      "iform": 5269,
      "}'_{\\": 5270,
      "never": 5271,
      "}\\;{\\": 5272,
      "}&=(\\": 5273,
      "}=-(\\": 5274,
      ")^*=": 5275,
      "henever": 5276,
      "37166": 5277,
      "resp": 5278,
      "Ġnumber": 5279,
      "shortintertext": 5280,
      "62637166": 5281,
      "'|_": 5282,
      "+&\\": 5283,
      ":[": 5284,
      "=:\\": 5285,
      "BU": 5286,
      "Cr": 5287,
      "Pu": 5288,
      "TC": 5289,
      "]}}\\": 5290,
      "]}^{(": 5291,
      "]}{(": 5292,
      "]}\\|": 5293,
      "^!": 5294,
      "dom": 5295,
      "jL": 5296,
      "ous": 5297,
      "vspace": 5298,
      ")\\|=": 5299,
      "Ġ-|\\": 5300,
      ")}||": 5301,
      "Ġ\\\\{": 5302,
      "Ġ\\\\\\\\\\": 5303,
      "Ġ100": 5304,
      "}=+\\": 5305,
      "^{(-\\": 5306,
      "}+...": 5307,
      "Ġnon": 5308,
      "true": 5309,
      "Ġpro": 5310,
      ")}\\;.\\": 5311,
      "}|(\\": 5312,
      "}}(-\\": 5313,
      ")^{-(\\": 5314,
      "Ġ:=&": 5315,
      "_{-}^{\\": 5316,
      "_{-}=": 5317,
      "\\}/": 5318,
      "''}(": 5319,
      "^--": 5320,
      ")}}+\\": 5321,
      "_*-": 5322,
      ")}_{{\\": 5323,
      ")^*(\\": 5324,
      "arrowleft": 5325,
      "^{*(": 5326,
      "^{*\\": 5327,
      "}_{-}\\": 5328,
      "^{(+)}_{": 5329,
      "multi": 5330,
      "'}).\\": 5331,
      "+{{": 5332,
      "-)\\": 5333,
      "79": 5334,
      "<{\\": 5335,
      "AW": 5336,
      "BK": 5337,
      "BN": 5338,
      "DG": 5339,
      "INR": 5340,
      "Nt": 5341,
      "``": 5342,
      "card": 5343,
      "fe": 5344,
      "gN": 5345,
      "mathrel": 5346,
      "=\\\\": 5347,
      "}))_{": 5348,
      "}=\\\\": 5349,
      "Ġ|^{\\": 5350,
      "ĠBu": 5351,
      "Ġha": 5352,
      "}\\,_{": 5353,
      "Ġ\\|^{": 5354,
      ")|}{|\\": 5355,
      "})=&\\": 5356,
      "};-": 5357,
      "\\;{\\": 5358,
      "):&=": 5359,
      "}}\\,,": 5360,
      "]_<": 5361,
      "*}-{": 5362,
      "}^+_{": 5363,
      "cccccccc": 5364,
      "}^-_": 5365,
      "}_{+},\\": 5366,
      "|\\\\&=\\": 5367,
      "Spec": 5368,
      "*_": 5369,
      ",..": 5370,
      "73": 5371,
      "BI": 5372,
      "Cap": 5373,
      "Hat": 5374,
      "La": 5375,
      "bA": 5376,
      "fh": 5377,
      "fx": 5378,
      "gt": 5379,
      "jB": 5380,
      "lh": 5381,
      "tn": 5382,
      "zA": 5383,
      "{^": 5384,
      "|))": 5385,
      "|}-": 5386,
      "|)+": 5387,
      "Ġ]}": 5388,
      "Ġarg": 5389,
      "mathc": 5390,
      "Ġ+_": 5391,
      "varDelta": 5392,
      "law": 5393,
      "hor": 5394,
      "^*]": 5395,
      "^*)+\\": 5396,
      "}=\\|\\": 5397,
      "Ġker": 5398,
      "Ġbd": 5399,
      "ĠCon": 5400,
      "Ġqx": 5401,
      "})\\|^": 5402,
      "ĠDA": 5403,
      ")_{[": 5404,
      "isH": 5405,
      "))\\|_{": 5406,
      ")/(\\": 5407,
      ")}}-": 5408,
      "Ġ~|~": 5409,
      "}^*=\\": 5410,
      "}),~": 5411,
      "=-(\\": 5412,
      "}'+": 5413,
      "}~(": 5414,
      "}&=&\\": 5415,
      "\\\\&=&": 5416,
      "^*}^{": 5417,
      "oly": 5418,
      "]{}": 5419,
      ";\\;\\;\\;\\;\\": 5420,
      "}$\\": 5421,
      "rrr": 5422,
      "!}=": 5423,
      "')_": 5424,
      "'=(": 5425,
      ",_": 5426,
      ".{\\": 5427,
      "012": 5428,
      "Jv": 5429,
      "MM": 5430,
      "]}-": 5431,
      "]).": 5432,
      "xJ": 5433,
      "zg": 5434,
      "Ġle": 5435,
      "man": 5436,
      "Ġ&\\\\&": 5437,
      "}}}_{\\": 5438,
      "}}:\\": 5439,
      "Ġ+\\,": 5440,
      "})}-": 5441,
      "}))^{-": 5442,
      ")}}{|": 5443,
      "^{-}}": 5444,
      "}_*\\": 5445,
      ")^*}\\": 5446,
      "),...,": 5447,
      "Ġ{\\|": 5448,
      "))>": 5449,
      ")}\\|_": 5450,
      "Ġ|}\\": 5451,
      "\\|+": 5452,
      "\\|+\\": 5453,
      "orb": 5454,
      "proj": 5455,
      "ĠVar": 5456,
      "121": 5457,
      "ĠIII": 5458,
      "Ġ)^{(": 5459,
      ")\\\\-": 5460,
      ")|}.\\": 5461,
      ")|&=\\": 5462,
      "super": 5463,
      ")])": 5464,
      "\\}\\}.\\": 5465,
      "):=\\{\\": 5466,
      ")}})": 5467,
      "_{+}^{\\": 5468,
      "*}{}_{": 5469,
      "*}|\\{": 5470,
      "}:=(\\": 5471,
      ";\\;\\;\\;\\;\\;\\": 5472,
      "}$}\\": 5473,
      "288": 5474,
      "(+": 5475,
      "))}+": 5476,
      ",.\\": 5477,
      "Ct": 5478,
      "Sx": 5479,
      "TG": 5480,
      "UD": 5481,
      "\\})+": 5482,
      "]}_{\\": 5483,
      "eh": 5484,
      "jD": 5485,
      "qA": 5486,
      "qd": 5487,
      "rlap": 5488,
      "wr": 5489,
      "|)}{": 5490,
      "~,~": 5491,
      "Ġ~~~~~~~~": 5492,
      "Ġloc": 5493,
      "^{~\\": 5494,
      "}\\\\{": 5495,
      "make": 5496,
      "fter": 5497,
      "}}}}{\\": 5498,
      "}))}": 5499,
      "Ġ22": 5500,
      "\\,=\\": 5501,
      ")):=\\": 5502,
      "ĠCt": 5503,
      "\\|_{(": 5504,
      "ĠSt": 5505,
      "Ġ_{|": 5506,
      "}|)\\": 5507,
      "}}(|": 5508,
      ")^{\\!": 5509,
      "^++\\": 5510,
      "''}{\\": 5511,
      "display": 5512,
      ")})}{": 5513,
      "}^*,\\": 5514,
      "_{+}+": 5515,
      "_{[<\\": 5516,
      "231": 5517,
      "Ġ)\\;": 5518,
      "*}-{\\": 5519,
      "Ġthen": 5520,
      "}_*(": 5521,
      ")~~~,\\": 5522,
      "400": 5523,
      "AF": 5524,
      "EF": 5525,
      "Mu": 5526,
      "Nm": 5527,
      "Px": 5528,
      "Ran": 5529,
      "VV": 5530,
      "XA": 5531,
      "\\>\\": 5532,
      "\\,\\,\\,\\,": 5533,
      "])}\\": 5534,
      "eo": 5535,
      "pert": 5536,
      "qk": 5537,
      "qm": 5538,
      "rA": 5539,
      "sX": 5540,
      "tF": 5541,
      "xI": 5542,
      "{}+": 5543,
      "{}&": 5544,
      "Ġ\\}=\\": 5545,
      "}\\{(": 5546,
      "ight": 5547,
      ".\\\\&": 5548,
      "}^{'}": 5549,
      "}}...": 5550,
      "}))+": 5551,
      "})]=": 5552,
      ")},\\\\&": 5553,
      ")^*}": 5554,
      "Ġ256": 5555,
      "\\,,\\,\\": 5556,
      "^*|^": 5557,
      "^*:=\\": 5558,
      "^*)-\\": 5559,
      ")-[": 5560,
      "}|_\\": 5561,
      ")|.": 5562,
      "_{-}^": 5563,
      "^+}^{\\": 5564,
      ").}\\": 5565,
      ")}))": 5566,
      "):=-": 5567,
      "*}[[": 5568,
      ")|\\\\&": 5569,
      "+||": 5570,
      "Ġ]^": 5571,
      ")}+\\|\\": 5572,
      "Ġ\\;\\;\\;\\": 5573,
      "^{++}_{": 5574,
      "makebox": 5575,
      "':=\\": 5576,
      "')]": 5577,
      "))\\,,\\": 5578,
      "Ca": 5579,
      "HH": 5580,
      "JM": 5581,
      "KR": 5582,
      "MP": 5583,
      "QP": 5584,
      "Qu": 5585,
      "Sub": 5586,
      "TF": 5587,
      "aE": 5588,
      "bcd": 5589,
      "dj": 5590,
      "hp": 5591,
      "qv": 5592,
      "sds": 5593,
      "tN": 5594,
      "{}~": 5595,
      "_{=": 5596,
      "_{}}": 5597,
      "}\\},\\\\": 5598,
      "(\\!\\": 5599,
      "}})}{\\": 5600,
      "}})_": 5601,
      "}}}\\|": 5602,
      "})}^{\\": 5603,
      "})}}{\\": 5604,
      "lob": 5605,
      "lllll": 5606,
      "Ġ29": 5607,
      "}^{\\,\\": 5608,
      "Ġ\\,-\\,": 5609,
      "\\,-\\,": 5610,
      "))}^": 5611,
      "))),": 5612,
      "^*)+": 5613,
      "[\\,\\": 5614,
      ":=[": 5615,
      "ĠDv": 5616,
      "ĠEnd": 5617,
      "Ġ\\{-\\": 5618,
      "^+)=": 5619,
      "]+[\\": 5620,
      "normalsize": 5621,
      "{[}\\": 5622,
      "izx": 5623,
      "constant": 5624,
      "]_<^": 5625,
      "!}.": 5626,
      "$}}": 5627,
      ")~~~.\\": 5628,
      "62": 5629,
      "<-\\": 5630,
      "Cf": 5631,
      "MR": 5632,
      "PU": 5633,
      "TU": 5634,
      "lf": 5635,
      "lds": 5636,
      "mV": 5637,
      "tV": 5638,
      "yb": 5639,
      "|)}\\": 5640,
      "~|~": 5641,
      "{\\#\\": 5642,
      "Ġ=[\\": 5643,
      "}}-(": 5644,
      "}))-\\": 5645,
      "vartriangle": 5646,
      "lack": 5647,
      "\\\\*": 5648,
      "^{({\\": 5649,
      "\\,,\\\\\\": 5650,
      ")}\\|^": 5651,
      ";\\,\\": 5652,
      ")([": 5653,
      "case": 5654,
      "})\\|\\": 5655,
      "rcll": 5656,
      "}\\,,\\\\": 5657,
      "}|}{|": 5658,
      "Ġ)}^{": 5659,
      "]\\;,\\": 5660,
      ")|(": 5661,
      ")|&=": 5662,
      "_{-}^{-": 5663,
      "_+)^": 5664,
      "Ġ45": 5665,
      ")]\\,": 5666,
      "*}&-": 5667,
      "shape": 5668,
      "}_+}": 5669,
      "Ġord": 5670,
      "{}{}": 5671,
      "Ġ={}&": 5672,
      "^{(+)}_": 5673,
      "strut": 5674,
      "'\\}\\": 5675,
      "')(\\": 5676,
      "')^\\": 5677,
      "))^{-\\": 5678,
      "+...": 5679,
      "07": 5680,
      "Bf": 5681,
      "Eq": 5682,
      "Kr": 5683,
      "MG": 5684,
      "MH": 5685,
      "Mt": 5686,
      "Span": 5687,
      "\\}=-": 5688,
      "]}}{": 5689,
      "after": 5690,
      "bm": 5691,
      "corner": 5692,
      "high": 5693,
      "kin": 5694,
      "os": 5695,
      "pM": 5696,
      "sI": 5697,
      "sj": 5698,
      "{}{\\": 5699,
      "|}.": 5700,
      "Ġ\\}_": 5701,
      "}\\!\\!\\!": 5702,
      ",\\\\|": 5703,
      ")\\}}": 5704,
      "*}\\{(": 5705,
      "}^{'": 5706,
      "}}})\\": 5707,
      "}}||": 5708,
      "}))}\\": 5709,
      "}))+\\": 5710,
      ")}].\\": 5711,
      "^*\\\\": 5712,
      "Ġ|-": 5713,
      "Ġ|.\\": 5714,
      "Ġ}}^{": 5715,
      "}}{-": 5716,
      "ĠXY": 5717,
      "Ġ=\\,\\": 5718,
      "Ġ)}}": 5719,
      ")\\,,\\\\": 5720,
      "upper": 5721,
      "_{-}}\\": 5722,
      "|_{{\\": 5723,
      "Ġ\\\\&<": 5724,
      "rea": 5725,
      "rec": 5726,
      "Ġ_{\\{": 5727,
      "Ġ\\\\&=-\\": 5728,
      "{{}={": 5729,
      "ility": 5730,
      "}}+{": 5731,
      "}&=\\{": 5732,
      "}^+}\\": 5733,
      "Ġ72": 5734,
      "^{'}_": 5735,
      "Ġorder": 5736,
      "]}{[": 5737,
      "hfil": 5738,
      "iformly": 5739,
      "!(\\": 5740,
      "&\\,": 5741,
      "+}\\,": 5742,
      ".}(": 5743,
      ";[": 5744,
      ">^{": 5745,
      "BP": 5746,
      "Bt": 5747,
      "HT": 5748,
      "Ke": 5749,
      "Ku": 5750,
      "Nw": 5751,
      "QR": 5752,
      "\\_": 5753,
      "]|^": 5754,
      "]}|\\": 5755,
      "bw": 5756,
      "fin": 5757,
      "kV": 5758,
      "mH": 5759,
      "nti": 5760,
      "rJ": 5761,
      "{*}{": 5762,
      "|)\\,": 5763,
      "Ġvar": 5764,
      "Ġrad": 5765,
      "*}_{\\": 5766,
      "Ġ=~&": 5767,
      ")\\:\\": 5768,
      "^{-}(\\": 5769,
      "Ġ\\\\+\\": 5770,
      "}_{=": 5771,
      "Ġuu": 5772,
      "\\\\\\\\": 5773,
      "Ġap": 5774,
      "}=(-\\": 5775,
      "\\,;": 5776,
      "Ġbu": 5777,
      "Ġsol": 5778,
      "Ġset": 5779,
      "})\\|_": 5780,
      "Ġ\\;|\\;": 5781,
      ")|<": 5782,
      "upshape": 5783,
      "}\\\\-\\": 5784,
      "*}((\\": 5785,
      "})={": 5786,
      ")!^": 5787,
      ")!},\\": 5788,
      "_{+}=": 5789,
      "~~~~~~~": 5790,
      "^{*}=\\": 5791,
      "\\\\&=-": 5792,
      ")^*,": 5793,
      "})\\,,": 5794,
      "}_{-}(": 5795,
      ")}/{": 5796,
      "6263716633": 5797,
      "')_{": 5798,
      "')},\\": 5799,
      "*_{": 5800,
      ",,\\": 5801,
      ":{\\": 5802,
      "BPS": 5803,
      "DW": 5804,
      "FA": 5805,
      "PL": 5806,
      "SG": 5807,
      "\\#\\": 5808,
      "]^+": 5809,
      "],\\\\&": 5810,
      "bX": 5811,
      "black": 5812,
      "cw": 5813,
      "gB": 5814,
      "hm": 5815,
      "jN": 5816,
      "mT": 5817,
      "ple": 5818,
      "xQ": 5819,
      "Ġroot": 5820,
      "_{}^": 5821,
      "*}^{": 5822,
      "^{}\\": 5823,
      "Ġ=-(": 5824,
      "}^{^{\\": 5825,
      "}})\\,": 5826,
      "}),\\\\&": 5827,
      ")}_{-": 5828,
      "},{{\\": 5829,
      "}(\\|\\": 5830,
      "}}\\}\\": 5831,
      "Ġ\\,=": 5832,
      "app": 5833,
      "ĠAy": 5834,
      "Ġ&=(-": 5835,
      "Ġ|{": 5836,
      "Ġ||_{": 5837,
      "ĠCN": 5838,
      "\\|&\\": 5839,
      "Ġrs": 5840,
      "Ġsta": 5841,
      "})\\;.\\": 5842,
      "}||_": 5843,
      ")\\,|": 5844,
      ")\\,(\\": 5845,
      "}}(|\\": 5846,
      "^+)^{": 5847,
      "''+(": 5848,
      "}[[": 5849,
      "_-^{": 5850,
      "dydx": 5851,
      "_*+\\": 5852,
      "_*)(": 5853,
      "Ġ~.": 5854,
      "Ġ~-~": 5855,
      "}},{": 5856,
      "')|\\": 5857,
      "):={\\": 5858,
      "\\},\\\\&\\": 5859,
      "};{\\": 5860,
      "\\;=\\;\\": 5861,
      "^{+})": 5862,
      "}}-{": 5863,
      "^*}-": 5864,
      "^*}}": 5865,
      ")^*=\\": 5866,
      "})}{(\\": 5867,
      ")\\;=\\;\\": 5868,
      "}\\\\&-": 5869,
      "}\\\\&-\\": 5870,
      "Ġ\\;\\;,\\": 5871,
      ")~{\\": 5872,
      ")~=~\\": 5873,
      "nkn": 5874,
      "199": 5875,
      "!\\!\\!\\!\\!\\!\\!\\!\\": 5876,
      "Ġcont": 5877,
      "âĢĲ\\": 5878,
      "center": 5879,
      "!.\\": 5880,
      "&>": 5881,
      ",_{": 5882,
      "--": 5883,
      "-_": 5884,
      "-}^{\\": 5885,
      "512": 5886,
      ">_\\": 5887,
      "MT": 5888,
      "NW": 5889,
      "Nc": 5890,
      "OMA": 5891,
      "]}\\,": 5892,
      "dI": 5893,
      "kF": 5894,
      "kS": 5895,
      "mer": 5896,
      "og": 5897,
      "pg": 5898,
      "qi": 5899,
      "uh": 5900,
      "wv": 5901,
      "xdx": 5902,
      "zm": 5903,
      "~(\\": 5904,
      "~+~": 5905,
      "Ġta": 5906,
      "_{<\\": 5907,
      "Ġ&,\\": 5908,
      "sitive": 5909,
      "})}_{\\": 5910,
      "}),\\,": 5911,
      "})<\\": 5912,
      "Ġxz": 5913,
      "}=|\\": 5914,
      "ĠAi": 5915,
      "))}}": 5916,
      "Ġgx": 5917,
      "Ġ|[": 5918,
      "ĠTf": 5919,
      "ĠPx": 5920,
      "ĠHess": 5921,
      "Ġ_{+}": 5922,
      "]\\}.\\": 5923,
      "\\{\\|\\": 5924,
      "_+-\\": 5925,
      "_+}{\\": 5926,
      "_+^{(": 5927,
      "\\|_{{\\": 5928,
      "''.\\": 5929,
      ").(": 5930,
      "Ġdxds": 5931,
      "Ġ^{(\\": 5932,
      "'_*": 5933,
      "brane": 5934,
      ")&=[": 5935,
      ")})+": 5936,
      "_*+": 5937,
      "]={": 5938,
      "]={\\": 5939,
      "{||\\": 5940,
      "}^*)\\": 5941,
      "_{+},\\": 5942,
      "Ġ[\\![": 5943,
      "Ġ\\\\&=-": 5944,
      "^{*}+": 5945,
      "145": 5946,
      "dudv": 5947,
      "}}}{(\\": 5948,
      "_{*})": 5949,
      "^{{'": 5950,
      "truecm": 5951,
      "&+": 5952,
      "&+\\": 5953,
      "'t": 5954,
      "'\\|_{": 5955,
      "'|}": 5956,
      "216": 5957,
      ";-\\": 5958,
      "=({\\": 5959,
      "=(-\\": 5960,
      "CX": 5961,
      "FD": 5962,
      "MF": 5963,
      "MO": 5964,
      "Mat": 5965,
      "NF": 5966,
      "PNC": 5967,
      "SW": 5968,
      "TW": 5969,
      "Tz": 5970,
      "VW": 5971,
      "Xf": 5972,
      "\\}),\\": 5973,
      "aQ": 5974,
      "dddot": 5975,
      "hB": 5976,
      "jQ": 5977,
      "jY": 5978,
      "nV": 5979,
      "pL": 5980,
      "sph": 5981,
      "ua": 5982,
      "vy": 5983,
      "ye": 5984,
      "zF": 5985,
      "|)=\\": 5986,
      "|}}{\\": 5987,
      "Ġ)},": 5988,
      "Ġ}=-": 5989,
      "Ġ=|\\": 5990,
      "}}~,\\": 5991,
      "}))-": 5992,
      "+\\{": 5993,
      "nge": 5994,
      "},|": 5995,
      "abs": 5996,
      ").\\\\": 5997,
      "}^{\\;": 5998,
      "Ġgf": 5999,
      "Ġsc": 6000,
      "Ġ[|": 6001,
      "Ġ[\\,": 6002,
      "}-\\{": 6003,
      "Ġ\\;(": 6004,
      "gau": 6005,
      "''_\\": 6006,
      "))\\}": 6007,
      "Ġ_*": 6008,
      ")]-\\": 6009,
      "^-+\\": 6010,
      ")})^{(": 6011,
      ")!\\,": 6012,
      ")\\\\&=(\\": 6013,
      "}}+{{": 6014,
      ")=-{\\": 6015,
      "^*}.\\": 6016,
      ")),\\\\\\": 6017,
      "Ġ*_": 6018,
      "}_+,": 6019,
      "Ġdvol": 6020,
      ")$}.\\": 6021,
      "conv": 6022,
      "\\}+\\{": 6023,
      "@{\\,}": 6024,
      "_{\\#}^": 6025,
      "ular": 6026,
      "Ġsech": 6027,
      "'}]": 6028,
      "'})(": 6029,
      ")'=": 6030,
      "++": 6031,
      "-{{": 6032,
      ".+\\": 6033,
      ">(": 6034,
      ">}": 6035,
      "?\\": 6036,
      "DU": 6037,
      "Hf": 6038,
      "LS": 6039,
      "VR": 6040,
      "VU": 6041,
      "WP": 6042,
      "XB": 6043,
      "]!": 6044,
      "]|\\": 6045,
      "aB": 6046,
      "aV": 6047,
      "gw": 6048,
      "kI": 6049,
      "nI": 6050,
      "ud": 6051,
      "xG": 6052,
      "{]}^{": 6053,
      "|})": 6054,
      "Ġequ": 6055,
      "Ġ})^{": 6056,
      "Ġ\\>\\": 6057,
      "inst": 6058,
      "mand": 6059,
      ",\\;\\;\\;\\;": 6060,
      "}(-(": 6061,
      "}}|^{": 6062,
      "})(-": 6063,
      "})]_{": 6064,
      "^{\\;": 6065,
      "^{--": 6066,
      "mathbin": 6067,
      "},..,": 6068,
      "\\\\$": 6069,
      "rom": 6070,
      "),-\\": 6071,
      "^{(_": 6072,
      "Ġno": 6073,
      "ĠAf": 6074,
      "Ġpoint": 6075,
      ")}\\!": 6076,
      "Ġcy": 6077,
      ")|-|": 6078,
      "}[|\\": 6079,
      "}.}\\": 6080,
      "{-{\\": 6081,
      "_-.\\": 6082,
      "_*.\\": 6083,
      ")!},": 6084,
      "}&{\\": 6085,
      "):=&": 6086,
      ")}=&\\": 6087,
      "^{*}-": 6088,
      "236": 6089,
      "klm": 6090,
      "}}\\,(": 6091,
      ")=-(\\": 6092,
      "^*}+": 6093,
      "|\\,|": 6094,
      ")\\|.\\": 6095,
      "clic": 6096,
      "XYZ": 6097,
      "480": 6098,
      "))\\\\=&": 6099,
      ":\\:\\:\\:\\": 6100,
      "~,~~~": 6101,
      "pos": 6102,
      "two": 6103,
      "!}(\\": 6104,
      "&\\\\\\": 6105,
      "'):=\\": 6106,
      ")~~\\": 6107,
      ".}}": 6108,
      ";&": 6109,
      ">,": 6110,
      "CE": 6111,
      "Diam": 6112,
      "Lv": 6113,
      "SY": 6114,
      "\\,\\,\\,\\,\\": 6115,
      "]+(": 6116,
      "]]=": 6117,
      "dic": 6118,
      "hX": 6119,
      "ick": 6120,
      "kG": 6121,
      "nJ": 6122,
      "pX": 6123,
      "tM": 6124,
      "Ġsum": 6125,
      "Ġ'}": 6126,
      "}\\}_": 6127,
      "}^{~\\": 6128,
      "Ġ&,\\\\": 6129,
      "}))\\,": 6130,
      "})],\\": 6131,
      "Ġ\\\\|\\": 6132,
      "Ġfunc": 6133,
      "}}\\:": 6134,
      "}={{": 6135,
      "Ġ\\,|": 6136,
      "Ġ\\,,\\\\": 6137,
      "Ġne": 6138,
      "ĠAC": 6139,
      "ĠAP": 6140,
      "Ġcx": 6141,
      "\\|^\\": 6142,
      "Ġren": 6143,
      "})\\!": 6144,
      "ĠLB": 6145,
      "}^{({\\": 6146,
      "Ġ)&=": 6147,
      "dxd": 6148,
      ")|>\\": 6149,
      "}}([": 6150,
      "^+-\\": 6151,
      "\\|_{{": 6152,
      ")]=[": 6153,
      "\\}\\;": 6154,
      "\\}\\}": 6155,
      "\\,\\|": 6156,
      ")}}-\\": 6157,
      ")!(\\": 6158,
      "tors": 6159,
      "}}_{[": 6160,
      "}}=\\|": 6161,
      "\\|\\,": 6162,
      "}/(\\": 6163,
      "Ġ]^{": 6164,
      "mnpq": 6165,
      "}}}{{{": 6166,
      "Ġ\\!=\\!": 6167,
      "Ġ:=\\{": 6168,
      ")=&-\\": 6169,
      "{}{=}": 6170,
      "^{(+)}": 6171,
      "bigtriangledown": 6172,
      "command": 6173,
      "#\\{\\": 6174,
      "$}_": 6175,
      "&.\\": 6176,
      "',\\\\": 6177,
      "864": 6178,
      "93": 6179,
      ":-": 6180,
      "Bv": 6181,
      "EM": 6182,
      "Fix": 6183,
      "GB": 6184,
      "JT": 6185,
      "Lt": 6186,
      "NX": 6187,
      "RG": 6188,
      "Sa": 6189,
      "\\}}_": 6190,
      "gH": 6191,
      "gk": 6192,
      "gp": 6193,
      "glob": 6194,
      "hb": 6195,
      "jK": 6196,
      "mA": 6197,
      "sB": 6198,
      "scal": 6199,
      "tQ": 6200,
      "~[": 6201,
      "Ġtimes": 6202,
      "Ġ!}\\": 6203,
      "_{/": 6204,
      "}\\})": 6205,
      "}}}|": 6206,
      "err": 6207,
      "}){": 6208,
      "})))\\": 6209,
      "}{\\#": 6210,
      "lass": 6211,
      "}_{}": 6212,
      ")^+\\": 6213,
      "bos": 6214,
      "Ġaa": 6215,
      "Ġ\\,[": 6216,
      "^*)^\\": 6217,
      ")((\\": 6218,
      ")+[": 6219,
      ")+|\\": 6220,
      "}\\,|\\": 6221,
      ":=\\:": 6222,
      "Ġ))\\": 6223,
      "Ġ\\|{\\": 6224,
      "^+(-": 6225,
      "\\}&\\": 6226,
      ",\\,(": 6227,
      "}]\\\\": 6228,
      "Ġ\\\\&(": 6229,
      "Ġ\\\\&>": 6230,
      "Ġ43": 6231,
      ")]^\\": 6232,
      "^-+": 6233,
      ")})^\\": 6234,
      "_*=\\": 6235,
      ")!}(": 6236,
      "Ġ}{}^{\\": 6237,
      "iodic": 6238,
      "ikl": 6239,
      "}'.\\": 6240,
      "^{*}=": 6241,
      ")}+{\\": 6242,
      "^*},\\": 6243,
      "}<+\\": 6244,
      "}\\\\&=-\\": 6245,
      "Ġ96": 6246,
      "lower": 6247,
      "avg": 6248,
      "Ġinteger": 6249,
      "newcommand": 6250,
      "raisebox": 6251,
      "$;": 6252,
      "&~": 6253,
      "'\\,\\": 6254,
      "(.,": 6255,
      "06": 6256,
      "456": 6257,
      "AQ": 6258,
      "Ar": 6259,
      "As": 6260,
      "Dt": 6261,
      "GH": 6262,
      "HG": 6263,
      "KS": 6264,
      "Ns": 6265,
      "aI": 6266,
      "gz": 6267,
      "hA": 6268,
      "ither": 6269,
      "jE": 6270,
      "jH": 6271,
      "kH": 6272,
      "mB": 6273,
      "ov": 6274,
      "pQ": 6275,
      "rR": 6276,
      "xR": 6277,
      "xU": 6278,
      "Ġlim": 6279,
      "Ġ'\\": 6280,
      "_{_{(": 6281,
      "ine": 6282,
      "inu": 6283,
      "matter": 6284,
      "}{=": 6285,
      "}{{(": 6286,
      "des": 6287,
      "})))": 6288,
      "}))}{": 6289,
      "})}{|": 6290,
      "})]_": 6291,
      "^{-}_{\\": 6292,
      "}{\\}}{": 6293,
      "Ġ\\\\*": 6294,
      "}_{_{": 6295,
      "Ġfixed": 6296,
      "\\\\|": 6297,
      "Ġ(\\|\\": 6298,
      ")))^{": 6299,
      "))|_{": 6300,
      "^*:": 6301,
      ")}\\}\\": 6302,
      "Ġkl": 6303,
      "Ġ|,": 6304,
      "Ġcn": 6305,
      "Ġcr": 6306,
      "ĠCr": 6307,
      "\\|)": 6308,
      ")-|\\": 6309,
      "ĠPro": 6310,
      "biggm": 6311,
      "Ġ,\\;\\;": 6312,
      "textmd": 6313,
      "}|=|": 6314,
      "dtdx": 6315,
      "\\}|\\": 6316,
      "}{((": 6317,
      "renewcommand": 6318,
      "_-)^": 6319,
      "_-^{(": 6320,
      "_*=": 6321,
      "168": 6322,
      ")&&": 6323,
      "\\},&": 6324,
      "]=\\{": 6325,
      "}}+\\|": 6326,
      "Ġ60": 6327,
      "Ġ}}.": 6328,
      "250": 6329,
      "}_{+}(": 6330,
      "^{(-)}_{": 6331,
      "}~~.\\": 6332,
      "{\\{}{\\}}{": 6333,
      "^\\#(": 6334,
      "ADM": 6335,
      "$}^{": 6336,
      "$})": 6337,
      "'}{(": 6338,
      "'}}(\\": 6339,
      "'}),\\": 6340,
      "/|\\": 6341,
      "Bmatrix": 6342,
      "Cs": 6343,
      "ER": 6344,
      "Ef": 6345,
      "HK": 6346,
      "Hor": 6347,
      "IN": 6348,
      "PC": 6349,
      "\\/": 6350,
      "\\}(\\": 6351,
      "\\}}(\\": 6352,
      "\\}}=\\": 6353,
      "jP": 6354,
      "oo": 6355,
      "qe": 6356,
      "sH": 6357,
      "terms": 6358,
      "xm": 6359,
      "ying": 6360,
      "zh": 6361,
      "zs": 6362,
      "|}{(": 6363,
      "Ġ\\/": 6364,
      "Ġ\\}\\\\": 6365,
      "}\\}}(": 6366,
      ")\\,\\,\\": 6367,
      "}}^*\\": 6368,
      "}^*}\\": 6369,
      "varLambda": 6370,
      "}_{~": 6371,
      "Ġdo": 6372,
      "|\\;\\": 6373,
      "),|": 6374,
      "Ġel": 6375,
      "Ġiu": 6376,
      "}+[\\": 6377,
      "))'": 6378,
      "Ġ&=|": 6379,
      "Ġhas": 6380,
      "ĠSINR": 6381,
      "Ġ,(": 6382,
      "~~}": 6383,
      "~~{\\": 6384,
      "}\\,^{": 6385,
      "Ġ_{,": 6386,
      "}|>": 6387,
      "}|-|": 6388,
      ")|&": 6389,
      ",\\\\|\\": 6390,
      "}^{-},": 6391,
      "}]}{": 6392,
      "}]}{\\": 6393,
      "\\}\\}\\": 6394,
      "\\}\\,\\": 6395,
      "^-)=": 6396,
      "^-).\\": 6397,
      "(((": 6398,
      "_{++}": 6399,
      "],[\\": 6400,
      "Ġ]+": 6401,
      "Ġ].": 6402,
      "}~.": 6403,
      "bulk": 6404,
      "\\!}\\": 6405,
      "^*})": 6406,
      "}^{+}_{": 6407,
      ",&&\\": 6408,
      ")}\\,,": 6409,
      ")<+\\": 6410,
      "})\\\\&+": 6411,
      "_{*,": 6412,
      "soft": 6413,
      "MSE": 6414,
      "euc": 6415,
      "displaybreak": 6416,
      "gauge": 6417,
      "$}}\\": 6418,
      "'m": 6419,
      "'}.": 6420,
      "'=-": 6421,
      "+}^{": 6422,
      ",}\\\\": 6423,
      ":|\\": 6424,
      "BX": 6425,
      "DV": 6426,
      "DX": 6427,
      "EH": 6428,
      "IK": 6429,
      "NE": 6430,
      "Nk": 6431,
      "RP": 6432,
      "Supp": 6433,
      "Tor": 6434,
      "[(-": 6435,
      "\\}),": 6436,
      "]^*": 6437,
      "_(": 6438,
      "aS": 6439,
      "cre": 6440,
      "eb": 6441,
      "nY": 6442,
      "off": 6443,
      "zT": 6444,
      "igarrow": 6445,
      "_{\\{-": 6446,
      "rightsqu": 6447,
      "=\\,\\,": 6448,
      ")})\\\\": 6449,
      "^{-})": 6450,
      "Ġ\\\\\\{": 6451,
      "|\\|": 6452,
      ")=(-\\": 6453,
      "Ġfinite": 6454,
      ")=\\\\&\\": 6455,
      "Ġty": 6456,
      ")^{+": 6457,
      "Ġip": 6458,
      "asing": 6459,
      "^*\\,": 6460,
      "ton": 6461,
      "Ġvec": 6462,
      "[\\|\\": 6463,
      "Ġ}_\\": 6464,
      "}}{=": 6465,
      "Ġca": 6466,
      "Ġrj": 6467,
      "ĠLf": 6468,
      "Ġme": 6469,
      "1213": 6470,
      "}\\,+\\,": 6471,
      "&=\\{(": 6472,
      ")\\\\=\\": 6473,
      ")}(|": 6474,
      "minimize": 6475,
      "Ġ|\\;": 6476,
      "\\}\\;.\\": 6477,
      ")}})\\": 6478,
      "}}^{}": 6479,
      ")!!}{": 6480,
      "}},\\;": 6481,
      "'}|\\": 6482,
      "Ġ}{{\\": 6483,
      "}),(\\": 6484,
      "}'-": 6485,
      "\\}})": 6486,
      "^*}}\\": 6487,
      "}^{*}_{": 6488,
      "Ġ~~{\\": 6489,
      "emma": 6490,
      "|,|\\": 6491,
      "Ġtrue": 6492,
      "}*(": 6493,
      "]=[[": 6494,
      "^{\\#}(": 6495,
      "alent": 6496,
      "Ġ}(-{\\": 6497,
      "rightsquigarrow": 6498,
      "'|+": 6499,
      ")'_": 6500,
      "720": 6501,
      "91": 6502,
      ":(\\": 6503,
      "AH": 6504,
      "Area": 6505,
      "Diag": 6506,
      "EA": 6507,
      "Iu": 6508,
      "Law": 6509,
      "OS": 6510,
      "SN": 6511,
      "XV": 6512,
      "]~.\\": 6513,
      "aH": 6514,
      "bL": 6515,
      "bT": 6516,
      "ddagger": 6517,
      "gb": 6518,
      "vA": 6519,
      "Ġph": 6520,
      "Ġ)^*": 6521,
      "}{^": 6522,
      "denti": 6523,
      "Ġ+&": 6524,
      "})]=\\": 6525,
      "}_{<": 6526,
      "est": 6527,
      ")=((": 6528,
      ")=&-": 6529,
      "numer": 6530,
      "hich": 6531,
      "ability": 6532,
      "}.\\\\": 6533,
      "ĠeA": 6534,
      "Ġ\\,)": 6535,
      "Ġiq": 6536,
      "}+{{": 6537,
      "))[": 6538,
      "))^{(": 6539,
      "Ġ{-\\": 6540,
      ")}\\}_{": 6541,
      "Ġzero": 6542,
      ")}{-\\": 6543,
      "prin": 6544,
      "prot": 6545,
      "}\\,}^{-": 6546,
      ":=\\;": 6547,
      "Ġ)/": 6548,
      "Ġ)|": 6549,
      "(-(\\": 6550,
      "Ġ\\{{\\": 6551,
      "_{-}+": 6552,
      "^+}{\\": 6553,
      "}\\\\=": 6554,
      "Ġ^{{": 6555,
      "^-}^{\\": 6556,
      "*}&-\\": 6557,
      "105": 6558,
      "1010": 6559,
      "{-{": 6560,
      ")}_{[": 6561,
      "}},~": 6562,
      ")!}}": 6563,
      "{|(": 6564,
      "char": 6565,
      "^{*}}(": 6566,
      "Ġ]_": 6567,
      "})_{*}": 6568,
      "ian": 6569,
      "yyy": 6570,
      "~,~~~~": 6571,
      "llllll": 6572,
      "576": 6573,
      "}_*(\\": 6574,
      "}|=|\\": 6575,
      "circlearrowleft": 6576,
      "CFT": 6577,
      "\\!\\!\\!/": 6578,
      "Diamond": 6579,
      "%\\": 6580,
      "'|}{": 6581,
      "+}(\\": 6582,
      ",,": 6583,
      ",-(": 6584,
      ".&": 6585,
      ":~\\": 6586,
      "Cc": 6587,
      "ED": 6588,
      "FT": 6589,
      "Hx": 6590,
      "JA": 6591,
      "JB": 6592,
      "Nn": 6593,
      "Qf": 6594,
      "Xg": 6595,
      "YY": 6596,
      "\\!\\!\\!\\!\\": 6597,
      "])+\\": 6598,
      "_=": 6599,
      "aF": 6600,
      "ctu": 6601,
      "fix": 6602,
      "hy": 6603,
      "mK": 6604,
      "qV": 6605,
      "rst": 6606,
      "tE": 6607,
      "wb": 6608,
      "xn": 6609,
      "{>": 6610,
      "{~~": 6611,
      "|})\\": 6612,
      "|)|": 6613,
      "|}|\\": 6614,
      "|&=|": 6615,
      "}~~~,\\": 6616,
      "~-": 6617,
      "Ġsup": 6618,
      "Ġ}}(\\": 6619,
      "Ġ)}(\\": 6620,
      "^{>": 6621,
      "ndafter": 6622,
      "rac": 6623,
      "(\\{(": 6624,
      ")\\{\\": 6625,
      "*}\\#\\": 6626,
      "}^{'}_{": 6627,
      "}},\\\\&": 6628,
      "}))^{\\": 6629,
      "Ġ\\\\\\|": 6630,
      "}_{~\\": 6631,
      "|\\}": 6632,
      "},~~\\": 6633,
      "roman": 6634,
      ")=\\,\\": 6635,
      "),\\,\\,\\,\\,": 6636,
      ")))\\\\": 6637,
      "expa": 6638,
      "&\\,\\": 6639,
      "^*)^{\\": 6640,
      ")}\\{": 6641,
      ")}\\}": 6642,
      "Ġ&=[": 6643,
      "[\\|": 6644,
      "ĠCS": 6645,
      "Ġspan": 6646,
      "Ġqp": 6647,
      "Ġhe": 6648,
      "ĠVu": 6649,
      "}-\\|": 6650,
      "}^{(-\\": 6651,
      "ĠJe": 6652,
      "_{-(\\": 6653,
      "\\}}^{": 6654,
      "}]]": 6655,
      "}]},\\": 6656,
      ")_*(": 6657,
      "equivalent": 6658,
      "Ġ37": 6659,
      "^-}^{": 6660,
      "_*\\|^": 6661,
      ")!!}{(": 6662,
      "}&(\\": 6663,
      "Ġ}{|\\": 6664,
      "}}=(-": 6665,
      "}),&": 6666,
      "1313": 6667,
      "221": 6668,
      "})}&\\": 6669,
      ")&-\\": 6670,
      "2323": 6671,
      "245": 6672,
      "}~=~\\": 6673,
      "1432": 6674,
      "Ġ\\{\\{": 6675,
      ")\\\\&+(": 6676,
      "}}\\,{\\": 6677,
      "Ġ\\:.\\": 6678,
      "^*},": 6679,
      "Ġ54": 6680,
      ")}-{\\": 6681,
      "}_{+}^": 6682,
      "}_{+}}\\": 6683,
      "$,}\\;\\;": 6684,
      "}''(\\": 6685,
      "))\\\\=&\\": 6686,
      "Ġ~~~~\\": 6687,
      "Ġcov": 6688,
      ")...(": 6689,
      "Ġpositive": 6690,
      "uppercase": 6691,
      "numeral": 6692,
      "protect": 6693,
      "romannumeral": 6694,
      "expandafter": 6695,
      "')}(": 6696,
      "')}.\\": 6697,
      "(&": 6698,
      "))}}\\": 6699,
      ")$,": 6700,
      ",*}_{": 6701,
      ",....": 6702,
      ".&\\": 6703,
      ";~~": 6704,
      "=((": 6705,
      "BW": 6706,
      "DS": 6707,
      "EP": 6708,
      "Mas": 6709,
      "WW": 6710,
      "XU": 6711,
      "kU": 6712,
      "pT": 6713,
      "qR": 6714,
      "qX": 6715,
      "qrr": 6716,
      "uni": 6717,
      "vrule": 6718,
      "wy": 6719,
      "xk": 6720,
      "yg": 6721,
      "{{(": 6722,
      "}~~~.\\": 6723,
      "Ġ}}_{": 6724,
      ")\\}^": 6725,
      ")\\}}\\": 6726,
      "}})}.\\": 6727,
      "}}}\\,\\": 6728,
      "}})^\\": 6729,
      "}}_{\\{": 6730,
      "})((": 6731,
      "})|}": 6732,
      "Ġxu": 6733,
      "|\\!\\": 6734,
      "}_+(\\": 6735,
      "},&&": 6736,
      "}}\\{\\": 6737,
      "}}\\,\\,": 6738,
      "abq": 6739,
      "),~~\\": 6740,
      "Ġ\\,:=\\,": 6741,
      ")^{*}\\": 6742,
      "&\\;": 6743,
      ")}\\;\\": 6744,
      "ĠCD": 6745,
      "\\|}_": 6746,
      "ĠBC": 6747,
      "Ġmc": 6748,
      "pre": 6749,
      "cite": 6750,
      "}||^{": 6751,
      "}|}{|\\": 6752,
      "ĠKu": 6753,
      ")|&=|": 6754,
      "_{((": 6755,
      "_{-}=\\": 6756,
      "Ġ35": 6757,
      ")})_": 6758,
      "')).\\": 6759,
      "'):=": 6760,
      "}^*-": 6761,
      "_{+}=\\": 6762,
      ")}=\\|": 6763,
      "^{*})\\": 6764,
      "235": 6765,
      "longleftarrow": 6766,
      ")\\\\&>": 6767,
      "Ġ&&\\\\": 6768,
      ")>(": 6769,
      "}^{+},": 6770,
      "^{**}(": 6771,
      "}^{*})^{": 6772,
      "spin": 6773,
      "}\\!=\\!": 6774,
      "^{(-)}_": 6775,
      "}''\\": 6776,
      "Ġcosh": 6777,
      "Ġ\\,\\,\\,\\,\\,": 6778,
      "&*\\\\": 6779,
      "Ġfunction": 6780,
      "inuous": 6781,
      "!}\\,\\": 6782,
      "')&=": 6783,
      "')}_{": 6784,
      "'})}": 6785,
      "71": 6786,
      ";~": 6787,
      "AS": 6788,
      "CK": 6789,
      "Dh": 6790,
      "DTE": 6791,
      "Gen": 6792,
      "IL": 6793,
      "Md": 6794,
      "ND": 6795,
      "[]{": 6796,
      "\\})+\\": 6797,
      "])-": 6798,
      "]:\\": 6799,
      "]\\,,": 6800,
      "aR": 6801,
      "jS": 6802,
      "ter": 6803,
      "|}-\\": 6804,
      "|)}{\\": 6805,
      "Ġ\\:\\:\\": 6806,
      "}\\,\\,\\,\\": 6807,
      ",\\;\\;\\;\\;\\": 6808,
      "Ġ=:\\": 6809,
      "lefteqn": 6810,
      "}^{'}\\": 6811,
      "}})\\\\": 6812,
      ")}>\\": 6813,
      "Ġxe": 6814,
      "llcorner": 6815,
      "}}\\}": 6816,
      "}}\\}.\\": 6817,
      "}}\\;,\\": 6818,
      ")=\\,": 6819,
      ")=\\|\\": 6820,
      "sqsubset": 6821,
      "ĠtX": 6822,
      "),&&": 6823,
      "Ġib": 6824,
      "\\,:\\,\\": 6825,
      "ĠAA": 6826,
      "))].\\": 6827,
      "Ġ{{{": 6828,
      "^*)}{": 6829,
      ")}\\}.\\": 6830,
      "Ġkt": 6831,
      "Ġ&=:": 6832,
      "Ġ}:=\\": 6833,
      "&=(-": 6834,
      "ĠCf": 6835,
      "\\|}_{": 6836,
      "Ġsx": 6837,
      "ĠRm": 6838,
      "Ġ\\;+\\;": 6839,
      ")\\,[": 6840,
      "_{-}}{\\": 6841,
      "^+|": 6842,
      "\\}&=\\": 6843,
      "Ġ^{+}\\": 6844,
      "...<": 6845,
      "}}^{{": 6846,
      "}&\\\\": 6847,
      "}\\|=": 6848,
      "}\\|.\\": 6849,
      "Ġone": 6850,
      "_{[-\\": 6851,
      "}'-\\": 6852,
      "Ġ](": 6853,
      "Ġ120": 6854,
      "}:=\\{(": 6855,
      "kly": 6856,
      ")\\\\&<": 6857,
      "iiint": 6858,
      "Ġinde": 6859,
      "^*}=": 6860,
      "Ġ50": 6861,
      "Ġ52": 6862,
      "Ġ56": 6863,
      "Ġ&&&&": 6864,
      ")^{(|": 6865,
      "}>=\\": 6866,
      "360": 6867,
      "ield": 6868,
      "^{(-)}": 6869,
      ",~~{\\": 6870,
      "cur": 6871,
      "Ġ~~~~~~": 6872,
      "head": 6873,
      "\\}|.\\": 6874,
      "384": 6875,
      "grav": 6876,
      "eakly": 6877,
      "$.": 6878,
      ")...\\": 6879,
      "213": 6880,
      ">+\\": 6881,
      "Arg": 6882,
      "Fl": 6883,
      "HL": 6884,
      "LG": 6885,
      "Nq": 6886,
      "UW": 6887,
      "We": 6888,
      "cV": 6889,
      "eH": 6890,
      "fX": 6891,
      "iij": 6892,
      "mD": 6893,
      "mE": 6894,
      "nU": 6895,
      "pV": 6896,
      "qM": 6897,
      "rP": 6898,
      "rX": 6899,
      "spt": 6900,
      "uq": 6901,
      "va": 6902,
      "xC": 6903,
      "yL": 6904,
      "zP": 6905,
      "zp": 6906,
      "|}^{\\": 6907,
      "~}\\": 6908,
      "Ġ}}}\\": 6909,
      "}{}\\": 6910,
      ",\\\\\\\\": 6911,
      "{\\\\": 6912,
      "}},\\,": 6913,
      "})}|": 6914,
      "})({\\": 6915,
      "^{-+}_{": 6916,
      "Ġ\\\\(-": 6917,
      "Ġay": 6918,
      "sqcap": 6919,
      "Ġ\\,{": 6920,
      "),\\,(": 6921,
      "}+...\\": 6922,
      "}+||\\": 6923,
      "Ġ{=}": 6924,
      "&\\!\\!": 6925,
      "^*\\|_": 6926,
      "Ġgra": 6927,
      "ĠcJ": 6928,
      "\\|)\\": 6929,
      "orem": 6930,
      "sech": 6931,
      "ĠPl": 6932,
      "ĠVLC": 6933,
      "ĠInd": 6934,
      ")|:": 6935,
      ")|_\\": 6936,
      "minS": 6937,
      "^+).\\": 6938,
      "^+|^": 6939,
      "\\}>": 6940,
      "}^{-}_{": 6941,
      "}]-\\": 6942,
      "}]_\\": 6943,
      "'').\\": 6944,
      ")]+[": 6945,
      "^-)-": 6946,
      ")}))\\": 6947,
      "}^*_\\": 6948,
      "};\\\\\\": 6949,
      "}'+\\": 6950,
      ")&\\\\": 6951,
      "+||\\": 6952,
      "})+{\\": 6953,
      "}}-{{": 6954,
      "ensure": 6955,
      "}^{+}=": 6956,
      "pqr": 6957,
      "^{**}\\": 6958,
      "Ġ}}^\\": 6959,
      "}^{*}}(": 6960,
      "}>=": 6961,
      "ective": 6962,
      "}_+^{": 6963,
      "XYU": 6964,
      "supsetneq": 6965,
      "Ġprobability": 6966,
      "dentity": 6967,
      "cture": 6968,
      "ensuremath": 6969,
      "!)": 6970,
      "$}=": 6971,
      "&:=\\{": 6972,
      "'^*": 6973,
      "'+(": 6974,
      "))}+\\": 6975,
      "-))": 6976,
      "08": 6977,
      "432": 6978,
      "<\\,": 6979,
      "={{\\": 6980,
      ">-\\": 6981,
      "Ag": 6982,
      "Ap": 6983,
      "Cm": 6984,
      "Fr": 6985,
      "HJ": 6986,
      "Int": 6987,
      "JS": 6988,
      "KI": 6989,
      "LN": 6990,
      "RHS": 6991,
      "Sq": 6992,
      "Trace": 6993,
      "Uf": 6994,
      "XH": 6995,
      "YB": 6996,
      "[-(": 6997,
      "])-\\": 6998,
      "]].\\": 6999,
      "^!(": 7000,
      "fw": 7001,
      "ition": 7002,
      "jC": 7003,
      "ove": 7004,
      "sN": 7005,
      "tK": 7006,
      "wd": 7007,
      "xr": 7008,
      "{}(": 7009,
      "{.}": 7010,
      "|)=": 7011,
      "|)}{|": 7012,
      "Ġ..": 7013,
      "Ġ\\}}\\": 7014,
      "*}~": 7015,
      "^{},": 7016,
      "{\\{}": 7017,
      "_{\\,\\": 7018,
      "mathord": 7019,
      "*}\\#\\{": 7020,
      "Ġ&+(": 7021,
      "}}/\\": 7022,
      "}}]=": 7023,
      "}}}{|": 7024,
      "}}+|": 7025,
      "Ġ(}": 7026,
      "})_{(": 7027,
      "}))}{\\": 7028,
      "})}\\|": 7029,
      "})~.\\": 7030,
      "}^-(\\": 7031,
      ")}*": 7032,
      ")}|^{": 7033,
      "Ġfd": 7034,
      ")):=": 7035,
      ")))(\\": 7036,
      "Ġvv": 7037,
      ")({": 7038,
      "}}{}": 7039,
      "&={\\": 7040,
      "\\|^{-": 7041,
      "geqq": 7042,
      "ĠBx": 7043,
      "ĠST": 7044,
      "ĠMf": 7045,
      "Ġ-\\!": 7046,
      "Ġ=\\;\\": 7047,
      "ĠNC": 7048,
      "126": 7049,
      "textsuper": 7050,
      "'(|": 7051,
      "Ġ\\;(\\": 7052,
      ")}({": 7053,
      "Ġ&\\|\\": 7054,
      "updownarrow": 7055,
      "Ġ}\\|": 7056,
      "^+),": 7057,
      "}]=(": 7058,
      "_+}(\\": 7059,
      "117": 7060,
      "\\}\\{": 7061,
      "1024": 7062,
      "}}^{*}\\": 7063,
      "]=&\\": 7064,
      "}}_{{": 7065,
      "Ġ}{(\\": 7066,
      "~~~~&": 7067,
      "};\\\\&": 7068,
      "\\;(": 7069,
      "*}|(\\": 7070,
      "],\\;": 7071,
      "136": 7072,
      "}}=\\{": 7073,
      "ilt": 7074,
      "*}{}^{\\": 7075,
      ")\\\\&=&": 7076,
      ")\\\\&=(-": 7077,
      "}&=(-": 7078,
      "}}+(\\": 7079,
      "=&-": 7080,
      "=&(\\": 7081,
      "}:=-\\": 7082,
      "}_{-}(\\": 7083,
      "diamondsuit": 7084,
      "}~~,\\": 7085,
      "Ġuniformly": 7086,
      "index": 7087,
      "3214": 7088,
      "mathclap": 7089,
      "textsuperscript": 7090,
      "')}}": 7091,
      "']=": 7092,
      ")}^{(\\": 7093,
      "+)\\": 7094,
      "+}_": 7095,
      "+~\\": 7096,
      "DI": 7097,
      "Dk": 7098,
      "EQ": 7099,
      "ES": 7100,
      "GG": 7101,
      "Ht": 7102,
      "Hv": 7103,
      "KP": 7104,
      "KT": 7105,
      "Su": 7106,
      "Xe": 7107,
      "ZF": 7108,
      "\\,\\,\\,\\": 7109,
      "])(": 7110,
      "aZ": 7111,
      "cT": 7112,
      "hw": 7113,
      "hape": 7114,
      "kji": 7115,
      "rB": 7116,
      "ssi": 7117,
      "scr": 7118,
      "tW": 7119,
      "vb": 7120,
      "wu": 7121,
      "wz": 7122,
      "{<": 7123,
      "||^{": 7124,
      "|-(": 7125,
      "||=": 7126,
      "Ġ}).\\": 7127,
      "Ġ)}.\\": 7128,
      "inimize": 7129,
      "tab": 7130,
      ",\\\\{\\": 7131,
      "thick": 7132,
      "art": 7133,
      "}}}}.\\": 7134,
      "}}].\\": 7135,
      "}}](": 7136,
      "})~\\": 7137,
      "})],": 7138,
      "}))=(": 7139,
      "ĠdN": 7140,
      "ĠdQ": 7141,
      "xim": 7142,
      "hol": 7143,
      "},~~~~": 7144,
      "Ġfree": 7145,
      "Ġfrom": 7146,
      "\\\\{\\": 7147,
      "\\\\|\\": 7148,
      "Ġaf": 7149,
      "time": 7150,
      "),}\\": 7151,
      "Ġ\\,=\\,\\": 7152,
      "Ġiv": 7153,
      "tree": 7154,
      "))<": 7155,
      "Ġ{^\\": 7156,
      "^*)(\\": 7157,
      "^*||": 7158,
      "ĠCc": 7159,
      "ĠTX": 7160,
      "ĠsT": 7161,
      "Ġslow": 7162,
      "Ġqr": 7163,
      "ĠProb": 7164,
      "ĠSM": 7165,
      "ĠStr": 7166,
      "Ġ[[\\": 7167,
      "Ġ-\\|": 7168,
      "}|}.\\": 7169,
      "}|&\\": 7170,
      "Ġ\\;:\\;": 7171,
      ")}(-\\": 7172,
      "}}{\\|\\": 7173,
      "_{-}}{": 7174,
      "!\\,\\": 7175,
      "_+)}^": 7176,
      ")_-\\": 7177,
      "Ġ_*}": 7178,
      "^-}^": 7179,
      "}}^{-\\": 7180,
      "}\\,\\|": 7181,
      "):=[": 7182,
      "}}=&\\": 7183,
      ")}=&": 7184,
      ",-,": 7185,
      "};\\,": 7186,
      ")&(": 7187,
      ")&+\\": 7188,
      "([(": 7189,
      "||_\\": 7190,
      "142": 7191,
      "):(": 7192,
      "argmin": 7193,
      "}^-}": 7194,
      "ieA": 7195,
      "_{*}}": 7196,
      "\\::\\:": 7197,
      "_{\\{\\{": 7198,
      "}=&~\\": 7199,
      "circled": 7200,
      ".~\\,\\": 7201,
      "Ġ\\!\\!\\!\\!": 7202,
      "Ġboundary": 7203,
      "centerdot": 7204,
      "creasing": 7205,
      "curve": 7206,
      "!}+\\": 7207,
      "$}}_": 7208,
      "&$": 7209,
      "&,\\\\": 7210,
      "'=-\\": 7211,
      ".(\\": 7212,
      ".~\\": 7213,
      "312": 7214,
      "315": 7215,
      ":.\\": 7216,
      "Ab": 7217,
      "EE": 7218,
      "FE": 7219,
      "Ff": 7220,
      "GT": 7221,
      "If": 7222,
      "JI": 7223,
      "MQ": 7224,
      "Mx": 7225,
      "NK": 7226,
      "PW": 7227,
      "Po": 7228,
      "Prob": 7229,
      "RA": 7230,
      "Vu": 7231,
      "\\}=-\\": 7232,
      "\\})-": 7233,
      "]_+": 7234,
      "]~,\\": 7235,
      "_,": 7236,
      "cF": 7237,
      "cline": 7238,
      "finite": 7239,
      "gV": 7240,
      "iab": 7241,
      "jZ": 7242,
      "rH": 7243,
      "uc": 7244,
      "xK": 7245,
      "xc": 7246,
      "{/": 7247,
      "{^\\": 7248,
      "{}=": 7249,
      "}....": 7250,
      "Ġar": 7251,
      "_{;\\": 7252,
      "ran": 7253,
      "}{}^\\": 7254,
      "{\\!\\!": 7255,
      "rightrightarrow": 7256,
      "}}'": 7257,
      "}}}\\\\": 7258,
      "}}}},\\": 7259,
      "})]^{": 7260,
      "}_{_": 7261,
      "}_{,\\": 7262,
      "Ġdiff": 7263,
      "host": 7264,
      "\\\\{": 7265,
      "}^{\\;\\;": 7266,
      "}=&(": 7267,
      "linear": 7268,
      "\\,)": 7269,
      "ĠAut": 7270,
      "^*)}{\\": 7271,
      ")}\\;,\\": 7272,
      "Ġka": 7273,
      "Ġ&=&\\": 7274,
      ")(|\\": 7275,
      ":={\\": 7276,
      "Ġbs": 7277,
      "ĠCF": 7278,
      "\\|{\\": 7279,
      "Ġred": 7280,
      "Ġsy": 7281,
      "Ġsti": 7282,
      "ĠPV": 7283,
      "Ġmea": 7284,
      "Ġ,~": 7285,
      "}\\,+\\,\\": 7286,
      "dsdt": 7287,
      "Ġ_{+}\\": 7288,
      "Ġ_{-}": 7289,
      "ĠGeV": 7290,
      "Ġ):=\\": 7291,
      ")|-\\": 7292,
      ")||_": 7293,
      "Ġ:=(": 7294,
      "Ġ+\\!": 7295,
      "^+}(\\": 7296,
      "}^{-{\\": 7297,
      "}])=": 7298,
      "}]\\,": 7299,
      "'')^": 7300,
      "))\\|": 7301,
      "))\\;.\\": 7302,
      ")][\\": 7303,
      ")]\\\\&=": 7304,
      ")]-[": 7305,
      "Ġ^{*}\\": 7306,
      "Ġ(-)^{": 7307,
      "^-|^": 7308,
      "_*^{\\": 7309,
      ")!!\\": 7310,
      "]=(\\": 7311,
      "):=(-": 7312,
      "\\;,\\\\": 7313,
      ")}=\\{": 7314,
      "}')^": 7315,
      "*}[(\\": 7316,
      "^{+},\\": 7317,
      "*}{}^": 7318,
      "2314": 7319,
      "2341": 7320,
      "\\}}+\\": 7321,
      "||(": 7322,
      "\\!{\\": 7323,
      "\\!=\\!": 7324,
      ")\\,\\,\\,": 7325,
      "}:(": 7326,
      "}^{+},\\": 7327,
      "act": 7328,
      "}^+.\\": 7329,
      "}^{*})": 7330,
      "}^{*}=": 7331,
      "347": 7332,
      ");(": 7333,
      "}$,": 7334,
      "_{*}^": 7335,
      "{}{^\\": 7336,
      "):\\:": 7337,
      "4321": 7338,
      "SIR": 7339,
      "ĠCoeff": 7340,
      "twohead": 7341,
      "rightrightarrows": 7342,
      "!^{": 7343,
      "&,\\": 7344,
      "')/": 7345,
      "'\\|_": 7346,
      ")'+": 7347,
      "4123": 7348,
      "4132": 7349,
      "Bi": 7350,
      "CZ": 7351,
      "DY": 7352,
      "Dz": 7353,
      "FN": 7354,
      "HC": 7355,
      "IS": 7356,
      "Jd": 7357,
      "Lie": 7358,
      "PI": 7359,
      "SB": 7360,
      "UA": 7361,
      "Vec": 7362,
      "\\})\\\\": 7363,
      "])_{": 7364,
      "]],": 7365,
      "_!(": 7366,
      "aU": 7367,
      "aY": 7368,
      "fbox": 7369,
      "ici": 7370,
      "lv": 7371,
      "mes": 7372,
      "sD": 7373,
      "sP": 7374,
      "sat": 7375,
      "sol": 7376,
      "ution": 7377,
      "Ġla": 7378,
      "Ġ')": 7379,
      "Ġ)=-": 7380,
      "Ġess": 7381,
      "Ġsubject": 7382,
      "Ġ\\},\\\\\\": 7383,
      "*}%\\": 7384,
      "^{}_{\\": 7385,
      "^{''}": 7386,
      "}\\#": 7387,
      "}\\})=\\": 7388,
      ",\\!": 7389,
      ",\\|\\": 7390,
      "Ġ=~": 7391,
      "=\\,&": 7392,
      "-\\;": 7393,
      "muta": 7394,
      ")},\\,": 7395,
      ")}:\\": 7396,
      "varlimsup": 7397,
      "picture": 7398,
      "|\\:": 7399,
      "},}\\": 7400,
      "},|\\": 7401,
      "},\\,\\,\\": 7402,
      "}^{\\{": 7403,
      "Ġtf": 7404,
      ")^{*": 7405,
      "\\,+\\": 7406,
      "))~": 7407,
      "Ġval": 7408,
      "}=\\,\\": 7409,
      "Ġcs": 7410,
      "Ġcu": 7411,
      "ĠCH": 7412,
      "ĠCR": 7413,
      "Ġsh": 7414,
      "ĠExt": 7415,
      "127": 7416,
      "&=\\|": 7417,
      "ĠUV": 7418,
      "Ġ+\\|\\": 7419,
      "Ġ}\\;\\": 7420,
      "^+}^": 7421,
      "Ġ<+\\": 7422,
      "}[{": 7423,
      "_-}^{": 7424,
      "',-": 7425,
      "_*)^": 7426,
      ":\\!\\": 7427,
      "}},{{\\": 7428,
      "'))=": 7429,
      "})^{+": 7430,
      "):={": 7431,
      "Ġother": 7432,
      ")}=(-": 7433,
      "\\},\\,": 7434,
      "),\\\\(\\": 7435,
      "ikj": 7436,
      "1342": 7437,
      "}~+~": 7438,
      "}:={\\": 7439,
      ",&{\\": 7440,
      "Ġ\\,\\,,\\": 7441,
      "}^+,\\": 7442,
      "&&\\\\": 7443,
      "}^{*},": 7444,
      "smallfrown": 7445,
      "'=(\\": 7446,
      "3412": 7447,
      "3421": 7448,
      "}\\\\&=-": 7449,
      "}\\\\&=(\\": 7450,
      "}$}.\\": 7451,
      "^{'}+": 7452,
      "560": 7453,
      "),\\\\&(": 7454,
      "{}{=}\\": 7455,
      "dxdydz": 7456,
      "Ġadj": 7457,
      "Ġ_{-}\\": 7458,
      "medspace": 7459,
      "trianglelefteq": 7460,
      "\\}-\\{": 7461,
      "Ġhave": 7462,
      "Ġstiff": 7463,
      "'})=\\": 7464,
      "(.": 7465,
      "))}-": 7466,
      ".$\\": 7467,
      "300": 7468,
      "<|\\": 7469,
      "=+": 7470,
      "Aq": 7471,
      "FF": 7472,
      "GA": 7473,
      "HV": 7474,
      "Ho": 7475,
      "IA": 7476,
      "Jy": 7477,
      "KZ": 7478,
      "LX": 7479,
      "Lk": 7480,
      "MK": 7481,
      "NB": 7482,
      "Nv": 7483,
      "Qx": 7484,
      "RO": 7485,
      "Ts": 7486,
      "Uv": 7487,
      "Ux": 7488,
      "\\}^\\": 7489,
      "\\})}": 7490,
      "]\\|": 7491,
      "cD": 7492,
      "diff": 7493,
      "nG": 7494,
      "nZ": 7495,
      "pR": 7496,
      "pU": 7497,
      "qU": 7498,
      "rI": 7499,
      "sG": 7500,
      "sL": 7501,
      "wa": 7502,
      "|)+\\": 7503,
      "~\\|": 7504,
      "Ġ_+": 7505,
      "Ġ}}-": 7506,
      "Ġ}\\,,\\": 7507,
      "*}:": 7508,
      "*}.\\": 7509,
      "^{},\\": 7510,
      "^{{(": 7511,
      "^{*}{\\": 7512,
      "}\\{|": 7513,
      "}{]}{": 7514,
      ")\\;\\;\\;": 7515,
      ")\\!\\!": 7516,
      "Ġ&~~": 7517,
      "}}|_{\\": 7518,
      "Ġ+}": 7519,
      "sura": 7520,
      "Ġ-(-\\": 7521,
      "}))(\\": 7522,
      "})|_{\\": 7523,
      "})}\\\\&\\": 7524,
      "})&:=": 7525,
      "+\\\\": 7526,
      "+\\;\\": 7527,
      ")}/\\": 7528,
      ")}],": 7529,
      "Ġxq": 7530,
      "},..": 7531,
      "},\\:": 7532,
      "},\\\\{\\": 7533,
      "Ġtv": 7534,
      "Ġtop": 7535,
      "),[\\": 7536,
      "ĠAz": 7537,
      "))))": 7538,
      ")))-": 7539,
      "Ġgr": 7540,
      ")}\\|_{\\": 7541,
      "Ġkm": 7542,
      "Ġ};": 7543,
      "ĠCM": 7544,
      "\\|[": 7545,
      "})\\;,\\": 7546,
      "ĠHP": 7547,
      "ĠDR": 7548,
      "cont": 7549,
      "}|)^{": 7550,
      "}|+|\\": 7551,
      "Ġ\\;\\,": 7552,
      "Ġ\\;=\\;\\": 7553,
      ")\\\\-\\": 7554,
      ")+\\\\&": 7555,
      ")^{-{": 7556,
      ")}{\\|\\": 7557,
      "^+]": 7558,
      "}]_+": 7559,
      "}]=-\\": 7560,
      ")_{|\\": 7561,
      "'')=": 7562,
      "Ġlarge": 7563,
      ")]=-": 7564,
      "Ġ:&=": 7565,
      "Ġ$[": 7566,
      ")/{": 7567,
      ")})^*": 7568,
      "_-)}": 7569,
      "dyn": 7570,
      ":\\;\\": 7571,
      ")}_{=": 7572,
      "{|}\\": 7573,
      "_{+}-\\": 7574,
      "_{+}^{(": 7575,
      "2143": 7576,
      "\\\\&+(": 7577,
      "*}\\|(\\": 7578,
      "^{*}.\\": 7579,
      "Ġ]_{\\": 7580,
      "}~,~": 7581,
      "\\},~": 7582,
      "140": 7583,
      "\\!:\\!": 7584,
      "}}}{|\\": 7585,
      "))=\\{": 7586,
      "arrowright": 7587,
      "}:=&\\": 7588,
      "pqi": 7589,
      ")\\|=\\": 7590,
      "ijkt": 7591,
      "smallint": 7592,
      "{[}{]}{": 7593,
      "}_+.\\": 7594,
      ")}\\\\=&\\": 7595,
      "^{'}}}\\": 7596,
      "]\\\\=&\\": 7597,
      "960": 7598,
      ")_+^{": 7599,
      "))\\\\&=(": 7600,
      "\\|=\\|\\": 7601,
      "univ": 7602,
      "complement": 7603,
      "#(\\": 7604,
      "&:=(": 7605,
      "'}[": 7606,
      "'})^": 7607,
      "*{$\\": 7608,
      "-}_{\\": 7609,
      ".}}\\": 7610,
      ":\\|": 7611,
      ">\\,": 7612,
      "AE": 7613,
      "CY": 7614,
      "Cd": 7615,
      "FX": 7616,
      "Fv": 7617,
      "GP": 7618,
      "LF": 7619,
      "Mp": 7620,
      "OC": 7621,
      "PX": 7622,
      "PZ": 7623,
      "Pa": 7624,
      "RX": 7625,
      "SV": 7626,
      "ZX": 7627,
      "\\}}^": 7628,
      "ace": 7629,
      "gK": 7630,
      "ial": 7631,
      "jF": 7632,
      "kE": 7633,
      "nW": 7634,
      "pdx": 7635,
      "rV": 7636,
      "rig": 7637,
      "sto": 7638,
      "tJ": 7639,
      "uk": 7640,
      "whenever": 7641,
      "xE": 7642,
      "yh": 7643,
      "yk": 7644,
      "yeq": 7645,
      "zb": 7646,
      "{,}": 7647,
      "|)-": 7648,
      "Ġeq": 7649,
      "Ġ^+": 7650,
      "Ġ)}=": 7651,
      "Ġ)=-\\": 7652,
      "Ġ}\\,.\\": 7653,
      "*}^{\\": 7654,
      "ink": 7655,
      "endbmatrix": 7656,
      "}\\}\\\\": 7657,
      "}{_": 7658,
      "}{@{\\,}": 7659,
      "Ġ=(-\\": 7660,
      "*}\\{{\\": 7661,
      "ded": 7662,
      "})|.\\": 7663,
      ")}]_{": 7664,
      ")}~.\\": 7665,
      "^{\\{\\": 7666,
      "Ġxyz": 7667,
      "Ġ\\\\.": 7668,
      "}_{*": 7669,
      "}_{}\\": 7670,
      "ĠdC": 7671,
      "}}\\|^": 7672,
      "Ġae": 7673,
      "Ġav": 7674,
      "Ġ240": 7675,
      "Ġtrace": 7676,
      "Ġterm": 7677,
      "}={{\\": 7678,
      "Ġed": 7679,
      "^{({": 7680,
      "\\,)\\": 7681,
      ")))^": 7682,
      "Ġ{^": 7683,
      "Ġ{{(": 7684,
      "Ġ{}^*": 7685,
      "^*({\\": 7686,
      "Ġvu": 7687,
      "Ġps": 7688,
      "Ġ|}{": 7689,
      "Ġce": 7690,
      "\\|.": 7691,
      ")}{{": 7692,
      "ĠBNC": 7693,
      "})\\},\\": 7694,
      "ĠPD": 7695,
      "ĠSNR": 7696,
      "ĠDS": 7697,
      "ĠDiag": 7698,
      "prim": 7699,
      "Ġ.\\\\": 7700,
      "1223": 7701,
      "Ġ,\\,\\,": 7702,
      "itshape": 7703,
      "}\\,:\\,": 7704,
      "}|},\\": 7705,
      "'({\\": 7706,
      "Ġ)]": 7707,
      ",\\,|\\": 7708,
      "_+)=": 7709,
      ")_{(\\": 7710,
      "'')=\\": 7711,
      "Ġdxd": 7712,
      "))\\|^": 7713,
      "Ġ31": 7714,
      "})=[": 7715,
      "_-+\\": 7716,
      "_*[": 7717,
      "Ġ~&": 7718,
      "Ġ~^{": 7719,
      "}|\\,": 7720,
      "}^*)^": 7721,
      "}^*)^{": 7722,
      "*}&\\{": 7723,
      "]}:": 7724,
      "\\;|\\;": 7725,
      ")&:=\\{": 7726,
      "Ġ/(": 7727,
      "147": 7728,
      "})_{,": 7729,
      "^{[-": 7730,
      ")^*,\\": 7731,
      "}^{+}}": 7732,
      ",\\\\&[": 7733,
      "}^+)": 7734,
      "}^{[{\\": 7735,
      "}^-,": 7736,
      "\\,\\,.\\": 7737,
      ",+}\\": 7738,
      "post": 7739,
      "\\,{,}\\": 7740,
      "Cont": 7741,
      ";\\;\\;\\;\\;\\;\\;\\;\\;\\;\\;\\;\\;\\;\\;\\;\\": 7742,
      "total": 7743,
      "]\\!]}": 7744,
      "WZW": 7745,
      "ĠCov": 7746,
      "urlyeq": 7747,
      "@{}}{\\": 7748,
      "Ġsatisfies": 7749,
      "blacktriangleright": 7750,
      "twoheadrightarrow": 7751,
      "'$": 7752,
      "'}_\\": 7753,
      "')})": 7754,
      "'}=(": 7755,
      "*{\\": 7756,
      ",~~~~\\": 7757,
      "<...<": 7758,
      "AG": 7759,
      "BY": 7760,
      "Bz": 7761,
      "EN": 7762,
      "EX": 7763,
      "Gal": 7764,
      "GUT": 7765,
      "HF": 7766,
      "Hh": 7767,
      "Qv": 7768,
      "Ru": 7769,
      "Tc": 7770,
      "Uparrow": 7771,
      "\\-": 7772,
      "\\;\\;\\;\\": 7773,
      "\\;\\;\\;\\;": 7774,
      "])\\\\": 7775,
      "bF": 7776,
      "bP": 7777,
      "cN": 7778,
      "gL": 7779,
      "jG": 7780,
      "lz": 7781,
      "mC": 7782,
      "pC": 7783,
      "qN": 7784,
      "sF": 7785,
      "tI": 7786,
      "vd": 7787,
      "xl": 7788,
      "zJ": 7789,
      "zdz": 7790,
      "Ġinf": 7791,
      "Ġ),\\\\": 7792,
      "Ġ}}_": 7793,
      "Ġ}}\\,": 7794,
      "igen": 7795,
      "ality": 7796,
      "^{,": 7797,
      "raint": 7798,
      "les": 7799,
      ")\\\\{": 7800,
      ")\\},\\\\": 7801,
      "_{\\:": 7802,
      "}(^{\\": 7803,
      "=\\{(\\": 7804,
      "}}>\\": 7805,
      "}}}}{{\\": 7806,
      "Ġ((-": 7807,
      "})]^": 7808,
      "Ġxp": 7809,
      "Ġ01": 7810,
      "}_{{{": 7811,
      "ĠdG": 7812,
      "|\\}}": 7813,
      ")=<": 7814,
      "Ġ\\,_": 7815,
      "Ġ\\,&=\\": 7816,
      "),\\;\\;\\": 7817,
      "limit": 7818,
      "ĠiT": 7819,
      "Ġic": 7820,
      "\\,-": 7821,
      "))<\\": 7822,
      "))-(\\": 7823,
      "^*{\\": 7824,
      "^*)}\\": 7825,
      "^*&=": 7826,
      "^*(-": 7827,
      "^*_{(": 7828,
      "Ġkr": 7829,
      "Ġ}:": 7830,
      "Ġ}[\\": 7831,
      "&=-(": 7832,
      "Ġcase": 7833,
      "ĠCC": 7834,
      "\\|<\\": 7835,
      "\\|}{\\|": 7836,
      ")}{}_{": 7837,
      "pair": 7838,
      "pact": 7839,
      "ĠLL": 7840,
      "ĠRF": 7841,
      "Ġ-\\,\\": 7842,
      "Ġ=\\!": 7843,
      "Ġ=\\|\\": 7844,
      "Ġ)&": 7845,
      "Ġ&\\,\\": 7846,
      ")||_{\\": 7847,
      "_{-}^{(": 7848,
      "^+}}": 7849,
      "idy": 7850,
      "}]).\\": 7851,
      "'''\\": 7852,
      "Ġ38": 7853,
      "Ġ49": 7854,
      ")]\\\\&+": 7855,
      "Ġ$-": 7856,
      "_-}{\\": 7857,
      ")!\\,(": 7858,
      "')|^": 7859,
      "')&=\\": 7860,
      "_{+}}{": 7861,
      "_{+})\\": 7862,
      "Ġ\\\\&=:": 7863,
      "\\;,\\;": 7864,
      "220": 7865,
      "\\|\\\\": 7866,
      "^{*}_\\": 7867,
      "^{*})^{": 7868,
      "xxt": 7869,
      "246": 7870,
      "146": 7871,
      "}&\\|": 7872,
      "^*}}{": 7873,
      "ABR": 7874,
      "})\\\\&=(": 7875,
      ")),(": 7876,
      "}^+)^": 7877,
      ")~.": 7878,
      "}^{*},\\": 7879,
      "3456": 7880,
      "Ġtriv": 7881,
      "Ġ90": 7882,
      "MNP": 7883,
      "}:\\;": 7884,
      ")$.}\\": 7885,
      "^*}\\,": 7886,
      "poch": 7887,
      ")\\!-\\!": 7888,
      "{.}{": 7889,
      "CPF": 7890,
      ")*(": 7891,
      "}\\,\\,\\,\\,\\,": 7892,
      "Ġsinh": 7893,
      "ĠChar": 7894,
      ")~~,\\": 7895,
      "+&+&": 7896,
      "Ġcontinuous": 7897,
      "Hoch": 7898,
      "!|": 7899,
      "!=\\": 7900,
      "!}+": 7901,
      "$}\\\\\\": 7902,
      "')\\\\": 7903,
      "'}},": 7904,
      "({-": 7905,
      "){{": 7906,
      ",}(": 7907,
      "-}_": 7908,
      ".-": 7909,
      ".-\\": 7910,
      "210": 7911,
      ":\\\\": 7912,
      ":&\\": 7913,
      ">}\\": 7914,
      "AN": 7915,
      "Ak": 7916,
      "Cu": 7917,
      "EL": 7918,
      "Err": 7919,
      "FR": 7920,
      "Gx": 7921,
      "Inc": 7922,
      "JL": 7923,
      "Lh": 7924,
      "Ls": 7925,
      "Ny": 7926,
      "Ps": 7927,
      "Spl": 7928,
      "]<": 7929,
      "]>": 7930,
      "]|_{": 7931,
      "]}}.\\": 7932,
      "]})=\\": 7933,
      "aL": 7934,
      "aff": 7935,
      "cA": 7936,
      "cZ": 7937,
      "eQ": 7938,
      "ius": 7939,
      "kY": 7940,
      "sJ": 7941,
      "term": 7942,
      "Ġal": 7943,
      "Ġ}),": 7944,
      "Ġ}}+\\": 7945,
      "Ġ)\\,.\\": 7946,
      "Ġ!}{": 7947,
      "Ġlocal": 7948,
      "Ġalmost": 7949,
      "Ġ\\,\\,\\,\\,\\,\\,": 7950,
      "ined": 7951,
      "^{}_\\": 7952,
      "}\\}_{\\": 7953,
      "}\\;\\;\\;\\": 7954,
      "mag": 7955,
      "}}~~": 7956,
      "}})]": 7957,
      "Ġ({{\\": 7958,
      "})'\\": 7959,
      "}))}^{": 7960,
      ")}]=\\": 7961,
      ")}*\\": 7962,
      "^{\\,(": 7963,
      "biguplus": 7964,
      "}_{-(": 7965,
      "}_!\\": 7966,
      "nul": 7967,
      "},\\;\\;\\": 7968,
      "\\\\+": 7969,
      "\\,,\\\\&": 7970,
      "}-[": 7971,
      "^*&": 7972,
      "Ġvw": 7973,
      "Ġkz": 7974,
      "&=|\\": 7975,
      "Ġcond": 7976,
      ":=|": 7977,
      "ĠBD": 7978,
      "\\{-(": 7979,
      "ĠLx": 7980,
      "ĠLemma": 7981,
      "ĠRf": 7982,
      "}_{\\!": 7983,
      "Ġmo": 7984,
      "Ġmp": 7985,
      "ĠSx": 7986,
      "ĠDT": 7987,
      "ĠDX": 7988,
      "{(|\\": 7989,
      "&=\\{\\": 7990,
      "}|.": 7991,
      "}|-\\": 7992,
      "Ġ){\\": 7993,
      "Ġ}\\\\\\": 7994,
      "^+)=\\": 7995,
      "\\}<\\": 7996,
      "}]}.\\": 7997,
      "}]\\\\&=": 7998,
      "_+)}": 7999
    },
    "merges": [
      [
        "Ġ",
        "\\"
      ],
      [
        "i",
        "g"
      ],
      [
        "a",
        "l"
      ],
      [
        "_",
        "{"
      ],
      [
        "*",
        "}"
      ],
      [
        "ig",
        "n"
      ],
      [
        "al",
        "ign"
      ],
      [
        "i",
        "n"
      ],
      [
        "^",
        "{"
      ],
      [
        "e",
        "g"
      ],
      [
        "n",
        "d"
      ],
      [
        "b",
        "eg"
      ],
      [
        "beg",
        "in"
      ],
      [
        "e",
        "nd"
      ],
      [
        "}",
        "\\"
      ],
      [
        "r",
        "a"
      ],
      [
        "t",
        "a"
      ],
      [
        "m",
        "a"
      ],
      [
        "}",
        "{"
      ],
      [
        "f",
        "ra"
      ],
      [
        "fra",
        "c"
      ],
      [
        "l",
        "e"
      ],
      [
        ",",
        "\\"
      ],
      [
        "(",
        "\\"
      ],
      [
        "t",
        "h"
      ],
      [
        "f",
        "t"
      ],
      [
        "a",
        "r"
      ],
      [
        "{",
        "\\"
      ],
      [
        "Ġ",
        "="
      ],
      [
        "p",
        "h"
      ],
      [
        "a",
        "m"
      ],
      [
        "e",
        "ta"
      ],
      [
        "ig",
        "h"
      ],
      [
        "r",
        "igh"
      ],
      [
        ")",
        "\\"
      ],
      [
        ".",
        "\\"
      ],
      [
        "t",
        "i"
      ],
      [
        "_{",
        "\\"
      ],
      [
        "le",
        "ft"
      ],
      [
        "righ",
        "t"
      ],
      [
        "ma",
        "th"
      ],
      [
        "}",
        "("
      ],
      [
        "*}",
        "\\"
      ],
      [
        "}",
        "^{"
      ],
      [
        "=",
        "\\"
      ],
      [
        "d",
        "e"
      ],
      [
        "Ġ",
        "&"
      ],
      [
        "}",
        "}"
      ],
      [
        "-",
        "\\"
      ],
      [
        "Ġ",
        "+"
      ],
      [
        "s",
        "u"
      ],
      [
        "o",
        "t"
      ],
      [
        "d",
        "ot"
      ],
      [
        "ph",
        "a"
      ],
      [
        "al",
        "pha"
      ],
      [
        "s",
        "i"
      ],
      [
        "d",
        "a"
      ],
      [
        "su",
        "m"
      ],
      [
        "am",
        "b"
      ],
      [
        "amb",
        "da"
      ],
      [
        "Ġ",
        "("
      ],
      [
        "e",
        "r"
      ],
      [
        "Ġ",
        "-"
      ],
      [
        "}",
        ")"
      ],
      [
        "p",
        "si"
      ],
      [
        "+",
        "\\"
      ],
      [
        "l",
        "ambda"
      ],
      [
        "ph",
        "i"
      ],
      [
        "m",
        "u"
      ],
      [
        "l",
        "o"
      ],
      [
        "}",
        "^"
      ],
      [
        ")",
        "}"
      ],
      [
        "^{",
        "\\"
      ],
      [
        "l",
        "ta"
      ],
      [
        "am",
        "ma"
      ],
      [
        "in",
        "t"
      ],
      [
        "p",
        "ar"
      ],
      [
        "ti",
        "al"
      ],
      [
        "par",
        "tial"
      ],
      [
        "^{",
        "-"
      ],
      [
        "}{",
        "\\"
      ],
      [
        "c",
        "al"
      ],
      [
        "_",
        "\\"
      ],
      [
        "math",
        "b"
      ],
      [
        "b",
        "ig"
      ],
      [
        "v",
        "ar"
      ],
      [
        "eg",
        "a"
      ],
      [
        "m",
        "ega"
      ],
      [
        "l",
        "a"
      ],
      [
        "b",
        "eta"
      ],
      [
        "c",
        "dot"
      ],
      [
        "Ġ",
        "x"
      ],
      [
        "ig",
        "ma"
      ],
      [
        "v",
        "er"
      ],
      [
        "Ġ\\",
        "\\"
      ],
      [
        "p",
        "i"
      ],
      [
        "in",
        "ft"
      ],
      [
        "inft",
        "y"
      ],
      [
        "Ġ",
        "0"
      ],
      [
        "lo",
        "n"
      ],
      [
        "}",
        "_{"
      ],
      [
        "Ġ",
        "d"
      ],
      [
        "math",
        "cal"
      ],
      [
        "l",
        "de"
      ],
      [
        "|",
        "\\"
      ],
      [
        "th",
        "eta"
      ],
      [
        "ti",
        "lde"
      ],
      [
        "}",
        "_"
      ],
      [
        "g",
        "amma"
      ],
      [
        "Ġ",
        "1"
      ],
      [
        "r",
        "m"
      ],
      [
        "e",
        "s"
      ],
      [
        "psi",
        "lon"
      ],
      [
        "s",
        "igma"
      ],
      [
        ")",
        "="
      ],
      [
        "e",
        "psilon"
      ],
      [
        "n",
        "g"
      ],
      [
        "x",
        "i"
      ],
      [
        "h",
        "o"
      ],
      [
        "de",
        "lta"
      ],
      [
        "}",
        ","
      ],
      [
        "ta",
        "u"
      ],
      [
        "ng",
        "le"
      ],
      [
        "i",
        "m"
      ],
      [
        "n",
        "u"
      ],
      [
        "r",
        "ho"
      ],
      [
        "le",
        "q"
      ],
      [
        "o",
        "ver"
      ],
      [
        ")",
        "^"
      ],
      [
        "a",
        "t"
      ],
      [
        "l",
        "l"
      ],
      [
        "h",
        "i"
      ],
      [
        "Ġ",
        "u"
      ],
      [
        "b",
        "ar"
      ],
      [
        "h",
        "at"
      ],
      [
        "^",
        "\\"
      ],
      [
        "dot",
        "s"
      ],
      [
        "}",
        "(\\"
      ],
      [
        "Ġ",
        "f"
      ],
      [
        "}",
        ",\\"
      ],
      [
        "o",
        "mega"
      ],
      [
        "}",
        "}\\"
      ],
      [
        "\\",
        "\\"
      ],
      [
        "a",
        "b"
      ],
      [
        "e",
        "q"
      ],
      [
        "b",
        "o"
      ],
      [
        "r",
        "o"
      ],
      [
        "mathb",
        "b"
      ],
      [
        ")",
        "=\\"
      ],
      [
        "Ġ",
        "a"
      ],
      [
        "s",
        "q"
      ],
      [
        "e",
        "ll"
      ],
      [
        "r",
        "t"
      ],
      [
        ")",
        ".\\"
      ],
      [
        "Ġ",
        "2"
      ],
      [
        "}^{",
        "\\"
      ],
      [
        "sq",
        "rt"
      ],
      [
        "Ġ",
        "t"
      ],
      [
        "var",
        "phi"
      ],
      [
        "B",
        "ig"
      ],
      [
        "}",
        ".\\"
      ],
      [
        "ti",
        "m"
      ],
      [
        "tim",
        "es"
      ],
      [
        ")",
        ","
      ],
      [
        "}",
        "="
      ],
      [
        "ra",
        "y"
      ],
      [
        "ar",
        "ray"
      ],
      [
        "Ġ",
        "e"
      ],
      [
        "^{",
        "("
      ],
      [
        "n",
        "ab"
      ],
      [
        "nab",
        "la"
      ],
      [
        "Ġ\\",
        ","
      ],
      [
        ")",
        ",\\"
      ],
      [
        "mathb",
        "f"
      ],
      [
        "l",
        "im"
      ],
      [
        ")",
        "^{"
      ],
      [
        "D",
        "e"
      ],
      [
        "Ġ",
        "i"
      ],
      [
        "De",
        "lta"
      ],
      [
        "a",
        "p"
      ],
      [
        "l",
        "in"
      ],
      [
        "lin",
        "e"
      ],
      [
        "a",
        "s"
      ],
      [
        "Ġ",
        "{\\"
      ],
      [
        "Ġ",
        "(\\"
      ],
      [
        "}",
        "+"
      ],
      [
        "Ġ",
        "n"
      ],
      [
        "O",
        "mega"
      ],
      [
        "\\",
        ","
      ],
      [
        "w",
        "i"
      ],
      [
        "Ġ",
        "A"
      ],
      [
        "t",
        "r"
      ],
      [
        ")",
        ")"
      ],
      [
        "m",
        "bo"
      ],
      [
        "Ġ",
        "{"
      ],
      [
        "G",
        "amma"
      ],
      [
        "e",
        "x"
      ],
      [
        "}",
        "-"
      ],
      [
        "wi",
        "de"
      ],
      [
        "|",
        "^"
      ],
      [
        "ra",
        "ngle"
      ],
      [
        "e",
        "d"
      ],
      [
        "&",
        "\\"
      ],
      [
        "^",
        "*"
      ],
      [
        "t",
        "o"
      ],
      [
        "Ġ",
        "g"
      ],
      [
        "tr",
        "i"
      ],
      [
        "Ġ",
        "v"
      ],
      [
        "var",
        "epsilon"
      ],
      [
        "over",
        "line"
      ],
      [
        "math",
        "rm"
      ],
      [
        "Ġ",
        "p"
      ],
      [
        ")",
        "}\\"
      ],
      [
        "}",
        "=\\"
      ],
      [
        "lo",
        "g"
      ],
      [
        "Ġ",
        "y"
      ],
      [
        "Ġ",
        "k"
      ],
      [
        "Ġ&",
        "="
      ],
      [
        "la",
        "ngle"
      ],
      [
        ";",
        "\\"
      ],
      [
        "[",
        "\\"
      ],
      [
        "Ġ",
        "|"
      ],
      [
        ")",
        "("
      ],
      [
        "P",
        "hi"
      ],
      [
        "ma",
        "tri"
      ],
      [
        "matri",
        "x"
      ],
      [
        "Ġ",
        "}"
      ],
      [
        "a",
        "d"
      ],
      [
        "Ġ",
        "z"
      ],
      [
        "}",
        "}{"
      ],
      [
        "&",
        "="
      ],
      [
        "cdot",
        "s"
      ],
      [
        "Ġ",
        "c"
      ],
      [
        ":",
        "="
      ],
      [
        "q",
        "u"
      ],
      [
        "qu",
        "ad"
      ],
      [
        "c",
        "hi"
      ],
      [
        "Ġ",
        "b"
      ],
      [
        "Ġ",
        "C"
      ],
      [
        "ta",
        "r"
      ],
      [
        "\\",
        "|"
      ],
      [
        "Ġ",
        "r"
      ],
      [
        ")",
        "}{"
      ],
      [
        "l",
        "dots"
      ],
      [
        "p",
        "a"
      ],
      [
        "Ġ",
        "T"
      ],
      [
        "Ġ",
        "s"
      ],
      [
        "Ġ",
        "X"
      ],
      [
        "g",
        "eq"
      ],
      [
        "o",
        "times"
      ],
      [
        "o",
        "r"
      ],
      [
        "p",
        "ro"
      ],
      [
        "b",
        "f"
      ],
      [
        "s",
        "e"
      ],
      [
        "Ġ",
        "F"
      ],
      [
        "Ġ",
        "B"
      ],
      [
        "z",
        "eta"
      ],
      [
        "Ġ",
        "q"
      ],
      [
        "mbo",
        "x"
      ],
      [
        ")",
        "+"
      ],
      [
        "g",
        "e"
      ],
      [
        "\\",
        "{"
      ],
      [
        ")",
        "-"
      ],
      [
        "Ġ",
        "h"
      ],
      [
        "c",
        "as"
      ],
      [
        "cas",
        "es"
      ],
      [
        "ro",
        "w"
      ],
      [
        "}",
        ")\\"
      ],
      [
        "Ġ",
        "L"
      ],
      [
        "Ġ",
        "R"
      ],
      [
        "}",
        "_{\\"
      ],
      [
        "t",
        "s"
      ],
      [
        "Ġ",
        "P"
      ],
      [
        "}",
        "+\\"
      ],
      [
        "Ġ",
        "m"
      ],
      [
        "Ġ",
        "H"
      ],
      [
        "Ġ",
        "S"
      ],
      [
        "Ġ",
        "D"
      ],
      [
        "k",
        "ap"
      ],
      [
        "kap",
        "pa"
      ],
      [
        "L",
        "ambda"
      ],
      [
        "v",
        "e"
      ],
      [
        "i",
        "j"
      ],
      [
        "pro",
        "d"
      ],
      [
        "Ġ",
        ","
      ],
      [
        "r",
        "c"
      ],
      [
        "Ġ",
        "["
      ],
      [
        "tar",
        "row"
      ],
      [
        "p",
        "r"
      ],
      [
        "p",
        "m"
      ],
      [
        "Ġ",
        "E"
      ],
      [
        "Ġ",
        "M"
      ],
      [
        "~",
        "~"
      ],
      [
        "Ġ",
        "j"
      ],
      [
        "Ġ",
        "-\\"
      ],
      [
        "Ġ",
        ".\\"
      ],
      [
        "c",
        "o"
      ],
      [
        "wide",
        "tilde"
      ],
      [
        "se",
        "t"
      ],
      [
        "righ",
        "tarrow"
      ],
      [
        "Ġ",
        "w"
      ],
      [
        "t",
        "ex"
      ],
      [
        "im",
        "e"
      ],
      [
        "c",
        "i"
      ],
      [
        "pr",
        "ime"
      ],
      [
        "ci",
        "rc"
      ],
      [
        "{",
        "("
      ],
      [
        "Ġ",
        "V"
      ],
      [
        "Ġ=",
        "\\"
      ],
      [
        "Ġ",
        "N"
      ],
      [
        "ver",
        "t"
      ],
      [
        "P",
        "si"
      ],
      [
        "1",
        "2"
      ],
      [
        "big",
        "g"
      ],
      [
        "Ġ",
        ",\\"
      ],
      [
        "Ġ",
        "I"
      ],
      [
        "i",
        "ts"
      ],
      [
        "lim",
        "its"
      ],
      [
        "align",
        "ed"
      ],
      [
        "}\\",
        ","
      ],
      [
        "d",
        "s"
      ],
      [
        "&",
        "=\\"
      ],
      [
        "Ġ",
        "_{"
      ],
      [
        "Ġ",
        "G"
      ],
      [
        ":",
        "=\\"
      ],
      [
        "}",
        "-\\"
      ],
      [
        "p",
        "matrix"
      ],
      [
        "}^{",
        "("
      ],
      [
        "tex",
        "t"
      ],
      [
        "ve",
        "c"
      ],
      [
        "}^",
        "\\"
      ],
      [
        "}",
        "|"
      ],
      [
        "'",
        "("
      ],
      [
        "Ġ",
        ")"
      ],
      [
        "]",
        "\\"
      ],
      [
        "Ġ\\",
        ";"
      ],
      [
        "th",
        "er"
      ],
      [
        "o",
        "p"
      ],
      [
        ")\\",
        "\\"
      ],
      [
        ")",
        "}("
      ],
      [
        "^{",
        "-\\"
      ],
      [
        "Ġ\\",
        "|"
      ],
      [
        ")\\",
        ","
      ],
      [
        "(",
        "-"
      ],
      [
        "s",
        "in"
      ],
      [
        "d",
        "x"
      ],
      [
        "Ġ",
        "K"
      ],
      [
        "Ġ&",
        "\\"
      ],
      [
        "u",
        "s"
      ],
      [
        ".",
        "."
      ],
      [
        ")",
        "|"
      ],
      [
        "fra",
        "k"
      ],
      [
        "g",
        "a"
      ],
      [
        "}",
        "}("
      ],
      [
        "m",
        "in"
      ],
      [
        ")",
        "+\\"
      ],
      [
        "ga",
        "ther"
      ],
      [
        "Ġ\\",
        "{"
      ],
      [
        "Ġ",
        "U"
      ],
      [
        ")",
        "^{-"
      ],
      [
        "Ġ",
        "Q"
      ],
      [
        "Ġ",
        ":="
      ],
      [
        "wide",
        "hat"
      ],
      [
        "c",
        "ap"
      ],
      [
        "co",
        "s"
      ],
      [
        "f",
        "or"
      ],
      [
        "ed",
        "ge"
      ],
      [
        "al",
        "l"
      ],
      [
        "w",
        "edge"
      ],
      [
        "ex",
        "p"
      ],
      [
        "u",
        "p"
      ],
      [
        "math",
        "frak"
      ],
      [
        "as",
        "t"
      ],
      [
        "_{",
        "("
      ],
      [
        "c",
        "k"
      ],
      [
        "Ġ+",
        "\\"
      ],
      [
        "c",
        "c"
      ],
      [
        "d",
        "t"
      ],
      [
        "o",
        "m"
      ],
      [
        ")",
        "^{\\"
      ],
      [
        "Ġ",
        "W"
      ],
      [
        "}",
        "}{\\"
      ],
      [
        "su",
        "p"
      ],
      [
        "\\",
        "{\\"
      ],
      [
        "Ġ",
        "J"
      ],
      [
        ",\\",
        "\\"
      ],
      [
        "er",
        "t"
      ],
      [
        "V",
        "ert"
      ],
      [
        "i",
        "v"
      ],
      [
        "t",
        "y"
      ],
      [
        "su",
        "b"
      ],
      [
        "b",
        "in"
      ],
      [
        "bin",
        "om"
      ],
      [
        ")",
        "}{\\"
      ],
      [
        "_{",
        "-"
      ],
      [
        ")",
        "-\\"
      ],
      [
        "Ġ",
        "}\\"
      ],
      [
        "^",
        "+"
      ],
      [
        "u",
        "nd"
      ],
      [
        "S",
        "igma"
      ],
      [
        "Ġ",
        "<"
      ],
      [
        "und",
        "er"
      ],
      [
        "}\\",
        "\\"
      ],
      [
        "\\",
        "}"
      ],
      [
        "}^{",
        "-"
      ],
      [
        "c",
        "up"
      ],
      [
        "Ġ",
        "|\\"
      ],
      [
        ",\\",
        ","
      ],
      [
        "bo",
        "l"
      ],
      [
        "}{",
        "("
      ],
      [
        "*}",
        "("
      ],
      [
        "Ġ",
        "Y"
      ],
      [
        "Ġ",
        "Z"
      ],
      [
        "ma",
        "x"
      ],
      [
        "i",
        "d"
      ],
      [
        "}",
        "]"
      ],
      [
        "*}",
        "{\\"
      ],
      [
        "|",
        "_{"
      ],
      [
        "for",
        "all"
      ],
      [
        "!",
        "\\"
      ],
      [
        "c",
        "e"
      ],
      [
        "ty",
        "le"
      ],
      [
        "l",
        "n"
      ],
      [
        "_",
        "+"
      ],
      [
        "y",
        "mbo"
      ],
      [
        "ymbo",
        "l"
      ],
      [
        "ds",
        "ymbol"
      ],
      [
        "bol",
        "dsymbol"
      ],
      [
        ")",
        "_{"
      ],
      [
        "i",
        "s"
      ],
      [
        "\\|",
        "_{"
      ],
      [
        "q",
        "quad"
      ],
      [
        "'",
        "'"
      ],
      [
        "eq",
        "u"
      ],
      [
        "m",
        "id"
      ],
      [
        "Ġ\\\\",
        "\\"
      ],
      [
        ")",
        "_"
      ],
      [
        "equ",
        "iv"
      ],
      [
        ")",
        "."
      ],
      [
        "Ġd",
        "x"
      ],
      [
        "Ġ\\\\",
        "&"
      ],
      [
        "si",
        "m"
      ],
      [
        ")",
        ")\\"
      ],
      [
        "d",
        "frac"
      ],
      [
        "n",
        "eq"
      ],
      [
        ";\\",
        ";\\"
      ],
      [
        "Ġ",
        "l"
      ],
      [
        "Ġ",
        "3"
      ],
      [
        "Ġ",
        "_"
      ],
      [
        "l",
        "us"
      ],
      [
        "Ġ",
        "4"
      ],
      [
        "Ġ",
        "O"
      ],
      [
        ")",
        "]"
      ],
      [
        "}",
        "["
      ],
      [
        "1",
        "1"
      ],
      [
        "|",
        "^{"
      ],
      [
        "/",
        "\\"
      ],
      [
        "P",
        "i"
      ],
      [
        "-",
        "("
      ],
      [
        "da",
        "g"
      ],
      [
        "op",
        "lus"
      ],
      [
        "T",
        "h"
      ],
      [
        "}",
        "."
      ],
      [
        "Th",
        "eta"
      ],
      [
        "Ġ",
        "^{"
      ],
      [
        "b",
        "matrix"
      ],
      [
        ",\\",
        ",\\"
      ],
      [
        "s",
        "ta"
      ],
      [
        "big",
        "l"
      ],
      [
        "big",
        "r"
      ],
      [
        "}",
        "_\\"
      ],
      [
        "\\",
        "}\\"
      ],
      [
        "d",
        "is"
      ],
      [
        "sta",
        "ck"
      ],
      [
        "y",
        "s"
      ],
      [
        "})",
        "="
      ],
      [
        "Ġ",
        ">"
      ],
      [
        "p",
        "la"
      ],
      [
        "dis",
        "pla"
      ],
      [
        "Ġ(",
        "-"
      ],
      [
        "text",
        "rm"
      ],
      [
        "displa",
        "ys"
      ],
      [
        "displays",
        "tyle"
      ],
      [
        "'",
        "_"
      ],
      [
        "de",
        "t"
      ],
      [
        "under",
        "line"
      ],
      [
        "\\",
        ",\\"
      ],
      [
        "t",
        "frac"
      ],
      [
        "}}",
        ".\\"
      ],
      [
        "^",
        "-"
      ],
      [
        "lo",
        "or"
      ],
      [
        "f",
        "loor"
      ],
      [
        "sub",
        "set"
      ],
      [
        "g",
        "er"
      ],
      [
        "dag",
        "ger"
      ],
      [
        "r",
        "e"
      ],
      [
        "<",
        "\\"
      ],
      [
        "b",
        "ra"
      ],
      [
        "+",
        "("
      ],
      [
        "*}",
        "&"
      ],
      [
        "})",
        ".\\"
      ],
      [
        "Ġ",
        ":"
      ],
      [
        "\\",
        "}.\\"
      ],
      [
        "(",
        "("
      ],
      [
        "1",
        "0"
      ],
      [
        "Ġ",
        "$"
      ],
      [
        "in",
        "f"
      ],
      [
        ")",
        "/"
      ],
      [
        "{",
        "-"
      ],
      [
        "'",
        "\\"
      ],
      [
        "..",
        "."
      ],
      [
        "s",
        "tar"
      ],
      [
        "Ġ",
        "."
      ],
      [
        ")",
        ":=\\"
      ],
      [
        ")",
        "(\\"
      ],
      [
        ")",
        "&="
      ],
      [
        "min",
        "us"
      ],
      [
        ")",
        "}}"
      ],
      [
        ")",
        "})"
      ],
      [
        "_",
        "-"
      ],
      [
        ")}",
        ".\\"
      ],
      [
        "d",
        "y"
      ],
      [
        "'",
        ","
      ],
      [
        "s",
        "f"
      ],
      [
        "_",
        "*"
      ],
      [
        ":",
        "\\"
      ],
      [
        ")}",
        "_{"
      ],
      [
        "set",
        "minus"
      ],
      [
        "{",
        "{\\"
      ],
      [
        "}",
        "}^{"
      ],
      [
        "(",
        "{\\"
      ],
      [
        "Ġ",
        "~"
      ],
      [
        "}}",
        ","
      ],
      [
        ")",
        "!"
      ],
      [
        "s",
        "la"
      ],
      [
        "}",
        "&"
      ],
      [
        "]",
        "="
      ],
      [
        "{",
        "|"
      ],
      [
        "}}",
        ",\\"
      ],
      [
        "bra",
        "ce"
      ],
      [
        "Ġ",
        "^"
      ],
      [
        "}{",
        "|"
      ],
      [
        "(",
        "-\\"
      ],
      [
        "Ġd",
        "t"
      ],
      [
        ")}",
        ","
      ],
      [
        "]",
        ".\\"
      ],
      [
        "}\\",
        ",\\"
      ],
      [
        "sub",
        "stack"
      ],
      [
        "'",
        ")"
      ],
      [
        "})",
        "^{"
      ],
      [
        "})",
        "=\\"
      ],
      [
        "}}",
        "(\\"
      ],
      [
        "}}",
        "}"
      ],
      [
        "to",
        "r"
      ],
      [
        "^{",
        "(\\"
      ],
      [
        "p",
        "er"
      ],
      [
        "'",
        "}"
      ],
      [
        "}}",
        "_{"
      ],
      [
        "})",
        "^"
      ],
      [
        "*}",
        "(\\"
      ],
      [
        "n",
        "t"
      ],
      [
        "bo",
        "x"
      ],
      [
        "}\\",
        "|"
      ],
      [
        "e",
        "ra"
      ],
      [
        ")",
        ":="
      ],
      [
        "}",
        "|\\"
      ],
      [
        "era",
        "tor"
      ],
      [
        "=",
        "-\\"
      ],
      [
        "am",
        "e"
      ],
      [
        "text",
        "bf"
      ],
      [
        "Ġ",
        "_{\\"
      ],
      [
        "op",
        "erator"
      ],
      [
        "i",
        "f"
      ],
      [
        "s",
        "h"
      ],
      [
        "n",
        "ame"
      ],
      [
        "operator",
        "name"
      ],
      [
        "Big",
        "r"
      ],
      [
        "\\\\",
        "\\"
      ],
      [
        ";\\",
        ";"
      ],
      [
        "}^",
        "*"
      ],
      [
        "per",
        "p"
      ],
      [
        ")}",
        "_"
      ],
      [
        "Ġ",
        "}{"
      ],
      [
        "Ġ",
        "o"
      ],
      [
        "_{",
        "+"
      ],
      [
        "Ġ",
        "[\\"
      ],
      [
        "*}",
        "&\\"
      ],
      [
        ")}",
        ",\\"
      ],
      [
        "i",
        "o"
      ],
      [
        "})",
        ",\\"
      ],
      [
        "~",
        "\\"
      ],
      [
        "]",
        "}"
      ],
      [
        "i",
        "p"
      ],
      [
        "}}",
        "="
      ],
      [
        "Big",
        "l"
      ],
      [
        ")}",
        "="
      ],
      [
        "d",
        "im"
      ],
      [
        "var",
        "theta"
      ],
      [
        "})",
        ","
      ],
      [
        "Ġ\\\\",
        "&="
      ],
      [
        "io",
        "ta"
      ],
      [
        "m",
        "p"
      ],
      [
        "_{",
        "["
      ],
      [
        "]",
        ","
      ],
      [
        "~~",
        "~~"
      ],
      [
        ")",
        "&=\\"
      ],
      [
        "\\",
        "},\\"
      ],
      [
        "ve",
        "e"
      ],
      [
        ",",
        "-"
      ],
      [
        "{",
        "{"
      ],
      [
        "h",
        "bar"
      ],
      [
        "}",
        ";"
      ],
      [
        "\\",
        ";"
      ],
      [
        "),\\",
        "\\"
      ],
      [
        "_{",
        "-\\"
      ],
      [
        "\\",
        "|^"
      ],
      [
        ")^",
        "\\"
      ],
      [
        "1",
        "6"
      ],
      [
        "*}",
        "|"
      ],
      [
        "^*",
        "("
      ],
      [
        "i",
        "k"
      ],
      [
        ")",
        "|^"
      ],
      [
        "=",
        "-"
      ],
      [
        "v",
        "dots"
      ],
      [
        "]",
        ",\\"
      ],
      [
        "math",
        "sf"
      ],
      [
        "1",
        "3"
      ],
      [
        "}}",
        "=\\"
      ],
      [
        "}(",
        "-"
      ],
      [
        "Ġd",
        "s"
      ],
      [
        "2",
        "2"
      ],
      [
        "i",
        "t"
      ],
      [
        "=",
        "("
      ],
      [
        "\\",
        "|\\"
      ],
      [
        "o",
        "d"
      ],
      [
        ")}",
        "=\\"
      ],
      [
        "n",
        "ot"
      ],
      [
        "Ġ\\",
        ",\\"
      ],
      [
        "ho",
        "o"
      ],
      [
        "j",
        "k"
      ],
      [
        "})",
        "("
      ],
      [
        ")}",
        "(\\"
      ],
      [
        "h",
        "box"
      ],
      [
        ")=",
        "("
      ],
      [
        "}",
        "'"
      ],
      [
        "}}",
        "_"
      ],
      [
        "*}",
        "["
      ],
      [
        "Ġa",
        "nd"
      ],
      [
        "^{",
        "+"
      ],
      [
        "\\|",
        "_"
      ],
      [
        "big",
        "cup"
      ],
      [
        "i",
        "l"
      ],
      [
        "2",
        "1"
      ],
      [
        "Big",
        "g"
      ],
      [
        "d",
        "z"
      ],
      [
        ")",
        "|\\"
      ],
      [
        "hoo",
        "se"
      ],
      [
        "c",
        "hoose"
      ],
      [
        "(",
        "|"
      ],
      [
        "Ġ",
        "^{\\"
      ],
      [
        "s",
        "s"
      ],
      [
        "})",
        "}"
      ],
      [
        "\\\\",
        "&"
      ],
      [
        "r",
        "floor"
      ],
      [
        "c",
        "h"
      ],
      [
        "c",
        "r"
      ],
      [
        "l",
        "floor"
      ],
      [
        "^*",
        "\\"
      ],
      [
        "o",
        "n"
      ],
      [
        "|",
        "_"
      ],
      [
        "|",
        "}"
      ],
      [
        "Ġf",
        "or"
      ],
      [
        "0",
        "0"
      ],
      [
        "{",
        "(\\"
      ],
      [
        "}",
        "/"
      ],
      [
        "*}\\",
        "|"
      ],
      [
        "*}",
        "{"
      ],
      [
        ")",
        "&"
      ],
      [
        "sla",
        "nt"
      ],
      [
        "}}",
        "}\\"
      ],
      [
        "Ġ\\\\",
        "&\\"
      ],
      [
        "R",
        "e"
      ],
      [
        "Ġ\\",
        "}"
      ],
      [
        "+",
        "|"
      ],
      [
        "a",
        "nd"
      ],
      [
        "},\\",
        "\\"
      ],
      [
        "Ġ\\",
        "|\\"
      ],
      [
        "^{",
        "*}"
      ],
      [
        "}",
        "[\\"
      ],
      [
        "s",
        "pa"
      ],
      [
        "Ġ&",
        "=\\"
      ],
      [
        "2",
        "3"
      ],
      [
        "a",
        "ngle"
      ],
      [
        "Ġ",
        ")\\"
      ],
      [
        "}}{",
        "("
      ],
      [
        "}}",
        "^"
      ],
      [
        "var",
        "rho"
      ],
      [
        ",\\",
        "\\\\"
      ],
      [
        "x",
        "x"
      ],
      [
        ")",
        ")="
      ],
      [
        "_{",
        "|"
      ],
      [
        "Ġ",
        "]"
      ],
      [
        "2",
        "4"
      ],
      [
        "p",
        "s"
      ],
      [
        "_{",
        "{\\"
      ],
      [
        "|",
        "="
      ],
      [
        ")\\\\",
        "&="
      ],
      [
        "re",
        "l"
      ],
      [
        "n",
        "e"
      ],
      [
        "b",
        "u"
      ],
      [
        "}\\",
        ";"
      ],
      [
        "'",
        "_{"
      ],
      [
        ")",
        "_{\\"
      ],
      [
        "x",
        "y"
      ],
      [
        ")",
        ").\\"
      ],
      [
        "tri",
        "angle"
      ],
      [
        "(",
        "["
      ],
      [
        "\\",
        "}}"
      ],
      [
        "...",
        ","
      ],
      [
        "spa",
        "ce"
      ],
      [
        "to",
        "p"
      ],
      [
        "bigg",
        "r"
      ],
      [
        "Ġ",
        "}{\\"
      ],
      [
        "bigg",
        "l"
      ],
      [
        "!\\",
        "!\\"
      ],
      [
        "}",
        "~"
      ],
      [
        "n",
        "o"
      ],
      [
        "|",
        "_{\\"
      ],
      [
        "co",
        "lon"
      ],
      [
        "sin",
        "h"
      ],
      [
        "}",
        "&="
      ],
      [
        "\\",
        "},"
      ],
      [
        "d",
        "r"
      ],
      [
        "stack",
        "rel"
      ],
      [
        "}",
        "}^{\\"
      ],
      [
        "Ġd",
        "y"
      ],
      [
        "\\,",
        ".\\"
      ],
      [
        "Ġ1",
        "2"
      ],
      [
        "bu",
        "l"
      ],
      [
        "ma",
        "ps"
      ],
      [
        "!",
        "}"
      ],
      [
        "maps",
        "to"
      ],
      [
        "Ġ",
        "/"
      ],
      [
        "cos",
        "h"
      ],
      [
        "}",
        ":=\\"
      ],
      [
        "ts",
        "tyle"
      ],
      [
        "k",
        "l"
      ],
      [
        "le",
        "ss"
      ],
      [
        "})",
        "+"
      ],
      [
        "(",
        "{"
      ],
      [
        "]",
        "=\\"
      ],
      [
        ")=",
        "-\\"
      ],
      [
        "ta",
        "n"
      ],
      [
        "|",
        "|"
      ],
      [
        "}}",
        "+"
      ],
      [
        "1",
        "4"
      ],
      [
        "}}",
        "+\\"
      ],
      [
        "less",
        "sim"
      ],
      [
        "p",
        "t"
      ],
      [
        ")}{",
        "("
      ],
      [
        "under",
        "set"
      ],
      [
        "d",
        "eg"
      ],
      [
        "t",
        "t"
      ],
      [
        "lon",
        "g"
      ],
      [
        ")",
        ":"
      ],
      [
        "Ġi",
        "f"
      ],
      [
        ">",
        "\\"
      ],
      [
        "Ġ\\",
        "{\\"
      ],
      [
        "m",
        "n"
      ],
      [
        "'",
        "(\\"
      ],
      [
        "}=",
        "-\\"
      ],
      [
        "}",
        "|^"
      ],
      [
        "=",
        "&"
      ],
      [
        "subset",
        "eq"
      ],
      [
        ")\\\\",
        "&"
      ],
      [
        "\\",
        "!"
      ],
      [
        "}^{",
        "(\\"
      ],
      [
        "}}\\",
        ","
      ],
      [
        "i",
        "i"
      ],
      [
        "}}",
        ")"
      ],
      [
        "leq",
        "slant"
      ],
      [
        "X",
        "i"
      ],
      [
        "b",
        "a"
      ],
      [
        "|",
        "}\\"
      ],
      [
        "}",
        "&\\"
      ],
      [
        "})",
        "}\\"
      ],
      [
        "}(",
        "{\\"
      ],
      [
        "{(",
        "-"
      ],
      [
        "le",
        "t"
      ],
      [
        "d",
        "u"
      ],
      [
        "]",
        "_"
      ],
      [
        "})",
        "_{"
      ],
      [
        ")\\",
        ",\\"
      ],
      [
        "^{",
        "["
      ],
      [
        "}",
        ":"
      ],
      [
        "bul",
        "let"
      ],
      [
        "\\,",
        ",\\"
      ],
      [
        "pro",
        "x"
      ],
      [
        "Ġ",
        "in"
      ],
      [
        "sla",
        "sh"
      ],
      [
        "Ġ",
        "6"
      ],
      [
        "}=",
        "-"
      ],
      [
        "big",
        "oplus"
      ],
      [
        ")",
        ")^"
      ],
      [
        "ap",
        "prox"
      ],
      [
        "s",
        "t"
      ],
      [
        ")=",
        "-"
      ],
      [
        "ch",
        "e"
      ],
      [
        ",",
        "("
      ],
      [
        "che",
        "ck"
      ],
      [
        "\\\\",
        "&="
      ],
      [
        "]",
        "^"
      ],
      [
        "'",
        "}\\"
      ],
      [
        "/",
        "("
      ],
      [
        "\\\\",
        "&\\"
      ],
      [
        "over",
        "set"
      ],
      [
        "ar",
        "p"
      ],
      [
        "|",
        "^{\\"
      ],
      [
        "Ġ",
        "}("
      ],
      [
        "})",
        "-"
      ],
      [
        "}}",
        "-"
      ],
      [
        "^*",
        "_"
      ],
      [
        "Ġ\\",
        ":"
      ],
      [
        "'",
        "'("
      ],
      [
        "Ġ",
        ";"
      ],
      [
        "lim",
        "sup"
      ],
      [
        ")}",
        "+"
      ],
      [
        "^",
        "*}"
      ],
      [
        ")^",
        "*"
      ],
      [
        ")}",
        "}\\"
      ],
      [
        "]",
        "_{"
      ],
      [
        "3",
        "2"
      ],
      [
        "{",
        "|\\"
      ],
      [
        "A",
        "B"
      ],
      [
        ",",
        "...,"
      ],
      [
        ")^{",
        "-\\"
      ],
      [
        "I",
        "m"
      ],
      [
        "\\|",
        "_{\\"
      ],
      [
        "})",
        "^{-"
      ],
      [
        "d",
        "dots"
      ],
      [
        "})\\",
        "\\"
      ],
      [
        ")",
        "}^"
      ],
      [
        "_{\\",
        "{"
      ],
      [
        "})",
        "}{"
      ],
      [
        "i",
        "c"
      ],
      [
        ")",
        "),\\"
      ],
      [
        "Ġ",
        "5"
      ],
      [
        "~~",
        "~"
      ],
      [
        ")\\",
        ";"
      ],
      [
        "-",
        "|"
      ],
      [
        "*}",
        "-\\"
      ],
      [
        "cr",
        "ip"
      ],
      [
        ")",
        "),"
      ],
      [
        "long",
        "rightarrow"
      ],
      [
        "i",
        "a"
      ],
      [
        "Ġ&",
        "&"
      ],
      [
        "]",
        "("
      ],
      [
        "]",
        "}\\"
      ],
      [
        "e",
        "n"
      ],
      [
        "}}",
        "}{"
      ],
      [
        "d",
        "v"
      ],
      [
        "ba",
        "ck"
      ],
      [
        "*}",
        "-"
      ],
      [
        "cc",
        "c"
      ],
      [
        "2",
        "0"
      ],
      [
        "back",
        "slash"
      ],
      [
        ")+",
        "("
      ],
      [
        "d",
        "iv"
      ],
      [
        "c",
        "m"
      ],
      [
        ")",
        ">"
      ],
      [
        "!",
        "}\\"
      ],
      [
        "T",
        "r"
      ],
      [
        "Ġ",
        "8"
      ],
[...]
